<unk>	0
<s>	0
</s>	0
<pad>	0
▁t	-0
he	-1
in	-2
▁a	-3
▁the	-4
re	-5
on	-6
er	-7
▁s	-8
at	-9
en	-10
▁o	-11
▁w	-12
an	-13
ed	-14
or	-15
▁c	-16
is	-17
es	-18
it	-19
▁p	-20
al	-21
▁b	-22
▁of	-23
▁f	-24
ing	-25
il	-26
▁to	-27
ar	-28
▁an	-29
▁in	-30
ou	-31
ion	-32
ic	-33
as	-34
id	-35
ent	-36
▁m	-37
▁d	-38
▁h	-39
▁and	-40
▁th	-41
om	-42
▁n	-43
le	-44
▁P	-45
▁re	-46
ut	-47
▁C	-48
ay	-49
st	-50
▁be	-51
▁M	-52
▁A	-53
▁l	-54
ro	-55
▁S	-56
ve	-57
ct	-58
▁that	-59
▁e	-60
▁on	-61
ation	-62
▁he	-63
ot	-64
▁sa	-65
ol	-66
im	-67
▁g	-68
▁for	-69
ig	-70
ad	-71
▁is	-72
ill	-73
▁D	-74
ly	-75
ur	-76
▁T	-77
ce	-78
se	-79
res	-80
un	-81
ment	-82
ers	-83
pp	-84
▁said	-85
et	-86
am	-87
ir	-88
▁I	-89
ow	-90
ver	-91
▁wh	-92
▁al	-93
▁R	-94
▁B	-95
te	-96
▁as	-97
ag	-98
ac	-99
el	-100
▁st	-101
os	-102
ter	-103
ate	-104
▁was	-105
ld	-106
ul	-107
us	-108
▁pro	-109
ili	-110
▁con	-111
ident	-112
▁it	-113
ith	-114
▁F	-115
qu	-116
▁we	-117
ec	-118
ity	-119
▁L	-120
ist	-121
oun	-122
▁with	-123
▁“	-124
ial	-125
▁y	-126
and	-127
The	-128
▁by	-129
ort	-130
resident	-131
ain	-132
▁(	-133
▁r	-134
op	-135
est	-136
her	-137
ice	-138
▁fr	-139
▁v	-140
▁N	-141
▁not	-142
▁com	-143
red	-144
▁at	-145
▁are	-146
if	-147
ak	-148
,”	-149
iv	-150
ab	-151
▁k	-152
▁his	-153
art	-154
ru	-155
▁will	-156
▁ha	-157
ould	-158
ang	-159
od	-160
ch	-161
▁from	-162
▁or	-163
▁J	-164
oc	-165
our	-166
▁2	-167
ies	-168
▁G	-169
ant	-170
▁de	-171
▁ex	-172
▁H	-173
ore	-174
ht	-175
▁su	-176
▁sh	-177
ess	-178
ive	-179
.“	-180
▁ne	-181
uter	-182
ust	-183
hili	-184
ppin	-185
▁who	-186
hilippin	-187
ong	-188
▁President	-189
uterte	-190
▁ch	-191
▁E	-192
ect	-193
▁1	-194
ob	-195
▁go	-196
▁have	-197
▁Philippin	-198
end	-199
em	-200
▁has	-201
ud	-202
▁ad	-203
▁j	-204
▁Duterte	-205
ie	-206
▁Ch	-207
th	-208
▁le	-209
--	-210
aw	-211
▁un	-212
um	-213
ap	-214
▁their	-215
▁The	-216
▁O	-217
ast	-218
ary	-219
▁ag	-220
▁W	-221
ep	-222
ia	-223
▁In	-224
ino	-225
tr	-226
ight	-227
so	-228
00	-229
▁tr	-230
iz	-231
ire	-232
all	-233
ren	-234
up	-235
day	-236
ear	-237
ib	-238
ff	-239
▁off	-240
ard	-241
▁were	-242
ost	-243
der	-244
au	-245
▁U	-246
▁all	-247
▁also	-248
▁they	-249
▁ab	-250
▁her	-251
ok	-252
▁res	-253
cc	-254
out	-255
▁this	-256
age	-257
ign	-258
port	-259
pl	-260
▁Man	-261
ther	-262
vern	-263
ila	-264
▁would	-265
▁pol	-266
▁pr	-267
▁se	-268
▁sp	-269
▁whe	-270
ure	-271
ated	-272
ub	-273
ide	-274
ue	-275
ous	-276
ction	-277
ome	-278
.”	-279
▁V	-280
▁im	-281
ans	-282
▁pe	-283
▁20	-284
ich	-285
▁wor	-286
▁can	-287
les	-288
ip	-289
ace	-290
▁Philippines	-291
vernment	-292
▁coun	-293
ding	-294
ations	-295
ress	-296
▁she	-297
▁dis	-298
ational	-299
ator	-300
ell	-301
▁but	-302
▁inc	-303
▁had	-304
▁Mar	-305
▁bec	-306
▁Manila	-307
av	-308
mer	-309
lic	-310
▁you	-311
ack	-312
▁pl	-313
▁per	-314
ik	-315
ron	-316
▁gr	-317
ind	-318
ally	-319
ose	-320
ople	-321
ilip	-322
▁government	-323
fter	-324
og	-325
▁me	-326
▁Ad	-327
▁201	-328
ition	-329
▁which	-330
per	-331
▁cl	-332
▁Sen	-333
▁ar	-334
ass	-335
▁been	-336
ime	-337
ens	-338
▁out	-339
▁other	-340
oug	-341
▁do	-342
▁year	-343
leg	-344
ance	-345
act	-346
▁its	-347
▁ev	-348
ine	-349
▁acc	-350
▁comm	-351
▁again	-352
ted	-353
one	-354
ile	-355
▁K	-356
▁up	-357
ause	-358
▁app	-359
▁one	-360
▁people	-361
ake	-362
▁countr	-363
iss	-364
icles	-365
ail	-366
rug	-367
▁new	-368
oy	-369
▁after	-370
ber	-371
▁Filip	-372
ao	-373
▁part	-374
▁rec	-375
▁about	-376
illion	-377
▁City	-378
ied	-379
▁am	-380
▁offic	-381
▁law	-382
ts	-383
ublic	-384
obo	-385
ound	-386
ase	-387
ree	-388
----	-389
oin	-390
▁Chron	-391
▁just	-392
▁Adobo	-393
▁Chronicles	-394
▁more	-395
to	-396
In	-397
▁add	-398
▁our	-399
▁en	-400
for	-401
are	-402
uring	-403
▁us	-404
amp	-405
istr	-406
ical	-407
▁them	-408
▁against	-409
▁cr	-410
▁there	-411
▁Philippine	-412
▁An	-413
ike	-414
▁because	-415
▁man	-416
▁president	-417
▁when	-418
du	-419
▁country	-420
ence	-421
▁so	-422
▁inv	-423
▁drug	-424
very	-425
▁dec	-426
▁no	-427
pect	-428
pt	-429
▁report	-430
ates	-431
▁comp	-432
▁cont	-433
ret	-434
▁if	-435
ite	-436
▁him	-437
▁prov	-438
min	-439
ution	-440
▁over	-441
ict	-442
ays	-443
▁tw	-444
erson	-445
▁qu	-446
▁only	-447
ook	-448
man	-449
ities	-450
enc	-451
ian	-452
▁supp	-453
own	-454
io	-455
gr	-456
ked	-457
ks	-458
tern	-459
ade	-460
ish	-461
▁Th	-462
▁pre	-463
▁state	-464
▁3	-465
wn	-466
▁what	-467
oup	-468
ult	-469
omm	-470
quino	-471
erv	-472
quire	-473
▁Al	-474
ief	-475
ew	-476
ments	-477
▁imp	-478
able	-479
▁St	-480
king	-481
▁under	-482
He	-483
ge	-484
▁during	-485
ough	-486
ame	-487
me	-488
▁ele	-489
▁any	-490
vel	-491
▁kn	-492
ings	-493
hed	-494
▁should	-495
ince	-496
▁act	-497
▁Un	-498
▁than	-499
▁br	-500
mp	-501
anc	-502
▁med	-503
old	-504
▁time	-505
▁De	-506
form	-507
eral	-508
..	-509
▁mem	-510
ove	-511
▁like	-512
▁two	-513
ors	-514
▁Aquino	-515
▁official	-516
ach	-517
▁last	-518
▁being	-519
▁may	-520
▁reg	-521
irst	-522
ath	-523
▁sec	-524
ious	-525
▁police	-526
ord	-527
retary	-528
▁now	-529
▁public	-530
ited	-531
quirer	-532
lud	-533
und	-534
ourt	-535
▁Re	-536
ision	-537
▁Inquirer	-538
low	-539
Th	-540
ood	-541
▁some	-542
▁‘	-543
▁Y	-544
▁sc	-545
▁As	-546
med	-547
▁It	-548
▁Fr	-549
▁kill	-550
▁lead	-551
▁added	-552
fe	-553
ll	-554
▁call	-555
ning	-556
▁cons	-557
esp	-558
rig	-559
air	-560
ouse	-561
ating	-562
▁even	-563
▁May	-564
▁Rod	-565
▁say	-566
inos	-567
fore	-568
▁ass	-569
ned	-570
▁Ar	-571
▁iss	-572
arr	-573
▁Sec	-574
get	-575
▁bl	-576
▁ter	-577
▁Tr	-578
▁could	-579
ministr	-580
▁did	-581
▁includ	-582
▁former	-583
ond	-584
▁group	-585
▁Rep	-586
cent	-587
▁show	-588
▁mon	-589
000	-590
▁rem	-591
ady	-592
ject	-593
▁person	-594
▁first	-595
ina	-596
▁want	-597
we	-598
ues	-599
▁how	-600
▁Filipino	-601
It	-602
ons	-603
ual	-604
ise	-605
imes	-606
▁te	-607
▁alleg	-608
▁ng	-609
sel	-610
bers	-611
osed	-612
▁million	-613
▁att	-614
▁Comm	-615
resent	-616
artment	-617
ved	-618
▁right	-619
▁work	-620
▁ind	-621
rent	-622
itic	-623
▁He	-624
ilit	-625
ting	-626
ording	-627
ission	-628
▁post	-629
▁your	-630
▁co	-631
,000	-632
igh	-633
ces	-634
▁media	-635
ased	-636
▁into	-637
▁fam	-638
ctions	-639
▁need	-640
▁Le	-641
ily	-642
uth	-643
We	-644
▁Rodrig	-645
ives	-646
▁bet	-647
▁camp	-648
▁sen	-649
▁ro	-650
ced	-651
),	-652
ater	-653
▁Dep	-654
▁before	-655
▁4	-656
ents	-657
inal	-658
▁told	-659
let	-660
▁support	-661
ative	-662
ared	-663
▁Senate	-664
▁Rodrigo	-665
▁percent	-666
▁na	-667
▁ann	-668
ax	-669
ah	-670
ism	-671
ty	-672
▁sur	-673
iew	-674
▁those	-675
▁fil	-676
▁disc	-677
rest	-678
▁em	-679
ory	-680
▁National	-681
rump	-682
▁administr	-683
ions	-684
▁[	-685
▁while	-686
ild	-687
▁oper	-688
ency	-689
ra	-690
ier	-691
terv	-692
ek	-693
▁5	-694
▁where	-695
▁Rob	-696
irect	-697
ered	-698
▁Secretary	-699
▁know	-700
stit	-701
▁invest	-702
▁vot	-703
▁my	-704
▁rel	-705
▁pos	-706
▁ph	-707
▁Bul	-708
▁years	-709
▁rep	-710
cos	-711
▁Filipinos	-712
▁serv	-713
▁loc	-714
▁Ro	-715
▁char	-716
reat	-717
ices	-718
other	-719
▁Dav	-720
anes	-721
▁members	-722
▁made	-723
arl	-724
▁sub	-725
▁still	-726
ug	-727
aking	-728
ave	-729
▁soc	-730
▁war	-731
But	-732
com	-733
andid	-734
duct	-735
▁conf	-736
▁end	-737
hing	-738
▁these	-739
▁trans	-740
▁statement	-741
ri	-742
redo	-743
con	-744
its	-745
use	-746
ines	-747
ti	-748
▁exp	-749
▁bel	-750
ific	-751
▁hel	-752
xt	-753
ower	-754
ority	-755
▁ins	-756
▁month	-757
▁del	-758
▁sus	-759
▁Trump	-760
ized	-761
▁own	-762
▁alleged	-763
ists	-764
gram	-765
▁get	-766
).	-767
ful	-768
▁most	-769
▁Department	-770
rough	-771
hip	-772
ry	-773
ular	-774
ven	-775
▁cor	-776
▁candid	-777
app	-778
ged	-779
▁col	-780
▁news	-781
▁ent	-782
illeg	-783
ft	-784
--------	-785
▁Lim	-786
▁commit	-787
ather	-788
▁help	-789
uc	-790
This	-791
▁ang	-792
alth	-793
▁officials	-794
ert	-795
▁fl	-796
plain	-797
ploy	-798
▁19	-799
▁many	-800
▁cas	-801
aign	-802
▁resp	-803
▁administration	-804
aim	-805
ought	-806
itical	-807
▁don	-808
▁str	-809
▁vis	-810
▁back	-811
aj	-812
▁every	-813
ick	-814
▁prob	-815
▁through	-816
▁bu	-817
ready	-818
ever	-819
ool	-820
velop	-821
▁campaign	-822
▁three	-823
urs	-824
ech	-825
letin	-826
anao	-827
ene	-828
ms	-829
▁Senator	-830
ayan	-831
▁leg	-832
ecial	-833
oint	-834
▁presidential	-835
▁House	-836
▁Marcos	-837
▁order	-838
ount	-839
▁case	-840
▁Davao	-841
▁Bulletin	-842
▁spe	-843
▁Con	-844
ward	-845
▁make	-846
▁then	-847
▁eff	-848
▁already	-849
ility	-850
meric	-851
▁sign	-852
▁see	-853
▁des	-854
gan	-855
▁bo	-856
uman	-857
ternational	-858
ands	-859
ope	-860
led	-861
▁pass	-862
ollow	-863
▁ac	-864
▁sy	-865
▁milit	-866
zon	-867
ov	-868
hen	-869
▁bus	-870
▁min	-871
▁since	-872
ible	-873
illegal	-874
ife	-875
▁same	-876
iol	-877
▁way	-878
used	-879
▁6	-880
ued	-881
▁down	-882
ark	-883
▁long	-884
▁Robredo	-885
▁Mon	-886
ified	-887
▁head	-888
uss	-889
▁well	-890
▁contin	-891
ne	-892
ange	-893
▁prop	-894
ton	-895
iness	-896
co	-897
tee	-898
▁det	-899
▁Is	-900
ional	-901
▁prom	-902
▁investig	-903
▁—	-904
▁We	-905
▁program	-906
stitution	-907
NP	-908
▁contr	-909
ital	-910
As	-911
▁Off	-912
▁ref	-913
▁high	-914
ute	-915
▁tal	-916
▁New	-917
eng	-918
▁very	-919
aring	-920
mber	-921
▁week	-922
mit	-923
▁Americ	-924
▁follow	-925
inoy	-926
▁senator	-927
▁claim	-928
chool	-929
▁illegal	-930
▁good	-931
▁fe	-932
▁world	-933
▁announ	-934
mb	-935
▁2016	-936
▁opp	-937
▁drugs	-938
ior	-939
▁Mal	-940
▁dep	-941
ald	-942
ung	-943
▁Just	-944
▁Sup	-945
▁po	-946
▁gu	-947
▁including	-948
indanao	-949
▁asked	-950
▁tax	-951
▁conc	-952
▁happ	-953
ention	-954
▁local	-955
ivers	-956
oth	-957
illanes	-958
▁such	-959
▁Lima	-960
ink	-961
▁national	-962
▁Times	-963
▁op	-964
▁Pol	-965
the	-966
▁far	-967
ano	-968
▁def	-969
ying	-970
ants	-971
▁Pro	-972
▁take	-973
▁For	-974
ween	-975
▁commun	-976
▁And	-977
eneral	-978
▁chief	-979
▁start	-980
▁aff	-981
ga	-982
▁Court	-983
▁run	-984
▁among	-985
ised	-986
▁fin	-987
▁court	-988
arang	-989
self	-990
▁military	-991
▁day	-992
ner	-993
▁allow	-994
▁7	-995
▁rece	-996
▁between	-997
▁project	-998
▁Mr	-999
ph	-1000
aff	-1001
ern	-1002
▁direct	-1003
▁belie	-1004
▁dr	-1005
▁family	-1006
▁viol	-1007
▁city	-1008
▁look	-1009
eb	-1010
ness	-1011
▁appro	-1012
▁office	-1013
▁meet	-1014
▁social	-1015
iday	-1016
▁proc	-1017
▁political	-1018
ork	-1019
▁decl	-1020
ix	-1021
ption	-1022
book	-1023
▁Ag	-1024
▁here	-1025
row	-1026
▁inte	-1027
▁stud	-1028
ele	-1029
Wh	-1030
▁Q	-1031
cr	-1032
uch	-1033
orth	-1034
▁next	-1035
pe	-1036
▁cap	-1037
▁interv	-1038
▁giv	-1039
▁terr	-1040
▁spok	-1041
▁quest	-1042
ured	-1043
pr	-1044
ank	-1045
▁10	-1046
ended	-1047
An	-1048
izens	-1049
▁recent	-1050
▁Vice	-1051
que	-1052
▁inst	-1053
aug	-1054
▁Wh	-1055
ived	-1056
▁num	-1057
▁set	-1058
▁Mayor	-1059
RP	-1060
▁called	-1061
▁inf	-1062
acebook	-1063
▁ret	-1064
▁Ab	-1065
▁Trillanes	-1066
▁filed	-1067
▁ob	-1068
▁cle	-1069
▁child	-1070
men	-1071
ened	-1072
urity	-1073
▁arrest	-1074
▁Office	-1075
▁inform	-1076
▁Mindanao	-1077
▁ord	-1078
pected	-1079
olution	-1080
▁business	-1081
▁fore	-1082
▁tru	-1083
▁saying	-1084
ained	-1085
stem	-1086
ara	-1087
▁sm	-1088
▁wom	-1089
▁Monday	-1090
ling	-1091
▁But	-1092
way	-1093
▁plan	-1094
▁according	-1095
▁Gr	-1096
velopment	-1097
olog	-1098
atch	-1099
any	-1100
▁Go	-1101
▁prev	-1102
inc	-1103
▁rele	-1104
▁They	-1105
▁9	-1106
▁ser	-1107
▁nam	-1108
▁dif	-1109
ody	-1110
iver	-1111
ize	-1112
▁adv	-1113
omet	-1114
▁does	-1115
ired	-1116
▁dem	-1117
▁Police	-1118
▁power	-1119
atur	-1120
iate	-1121
▁cur	-1122
lement	-1123
▁Friday	-1124
ric	-1125
...	-1126
sec	-1127
▁critic	-1128
▁Commission	-1129
oney	-1130
▁pa	-1131
▁wr	-1132
▁school	-1133
als	-1134
xas	-1135
▁found	-1136
▁used	-1137
▁incre	-1138
▁China	-1139
▁auth	-1140
ually	-1141
▁death	-1142
iting	-1143
▁Justice	-1144
feren	-1145
▁must	-1146
▁vict	-1147
ges	-1148
oe	-1149
etro	-1150
añ	-1151
▁proble	-1152
▁fund	-1153
son	-1154
▁use	-1155
▁real	-1156
▁interview	-1157
ving	-1158
▁decision	-1159
ral	-1160
▁Se	-1161
ista	-1162
▁fac	-1163
atives	-1164
▁another	-1165
▁Pinoy	-1166
urn	-1167
▁employ	-1168
▁peace	-1169
ures	-1170
▁8	-1171
ves	-1172
ending	-1173
▁En	-1174
ros	-1175
line	-1176
▁la	-1177
eration	-1178
▁pay	-1179
▁reported	-1180
ense	-1181
▁cases	-1182
20	-1183
▁human	-1184
▁leaders	-1185
▁US	-1186
▁invol	-1187
ided	-1188
▁days	-1189
▁GRP	-1190
▁big	-1191
▁billion	-1192
not	-1193
▁vide	-1194
▁why	-1195
ellow	-1196
▁ext	-1197
▁sim	-1198
acy	-1199
▁est	-1200
▁rights	-1201
▁United	-1202
elf	-1203
▁Reg	-1204
amb	-1205
▁Facebook	-1206
vers	-1207
arangay	-1208
reme	-1209
conom	-1210
▁killed	-1211
▁che	-1212
▁Cong	-1213
arlier	-1214
▁really	-1215
uesday	-1216
atic	-1217
▁Cor	-1218
▁conduct	-1219
▁int	-1220
outh	-1221
▁Ass	-1222
▁complain	-1223
▁ke	-1224
▁fact	-1225
▁Tuesday	-1226
▁poss	-1227
▁fight	-1228
ization	-1229
nes	-1230
▁much	-1231
inay	-1232
▁elect	-1233
▁elections	-1234
▁bill	-1235
▁rest	-1236
abor	-1237
▁No	-1238
▁think	-1239
▁province	-1240
▁both	-1241
▁contro	-1242
▁let	-1243
az	-1244
▁Cl	-1245
▁200	-1246
▁phot	-1247
▁PNP	-1248
▁Miss	-1249
ims	-1250
br	-1251
ecut	-1252
▁money	-1253
▁main	-1254
urch	-1255
▁Congress	-1256
ressed	-1257
▁mga	-1258
▁system	-1259
▁put	-1260
▁air	-1261
▁rul	-1262
▁hand	-1263
▁import	-1264
ito	-1265
▁pres	-1266
▁prote	-1267
▁rev	-1268
▁sl	-1269
ureau	-1270
lect	-1271
tal	-1272
▁San	-1273
ety	-1274
ason	-1275
▁process	-1276
▁Roxas	-1277
iy	-1278
iminal	-1279
ursday	-1280
onald	-1281
ains	-1282
ull	-1283
ccording	-1284
▁net	-1285
▁around	-1286
▁Thursday	-1287
ages	-1288
rist	-1289
▁Republic	-1290
▁give	-1291
▁Ju	-1292
▁visit	-1293
uty	-1294
awi	-1295
▁committee	-1296
artial	-1297
ference	-1298
▁win	-1299
▁organ	-1300
ocr	-1301
gest	-1302
▁Pac	-1303
▁cent	-1304
less	-1305
Duterte	-1306
On	-1307
land	-1308
▁yet	-1309
▁chair	-1310
ering	-1311
▁bro	-1312
▁sit	-1313
▁discuss	-1314
▁priv	-1315
▁workers	-1316
hes	-1317
▁terror	-1318
▁held	-1319
reed	-1320
▁requ	-1321
▁number	-1322
▁party	-1323
▁cre	-1324
▁announced	-1325
▁bas	-1326
▁ur	-1327
▁fail	-1328
go	-1329
▁ve	-1330
▁least	-1331
test	-1332
▁politic	-1333
ale	-1334
▁four	-1335
▁partic	-1336
▁sever	-1337
osition	-1338
▁press	-1339
ison	-1340
▁top	-1341
▁today	-1342
▁pop	-1343
ead	-1344
▁video	-1345
une	-1346
olic	-1347
arly	-1348
ators	-1349
▁name	-1350
▁job	-1351
▁mat	-1352
▁without	-1353
ient	-1354
▁cond	-1355
.”“	-1356
▁stand	-1357
sp	-1358
lo	-1359
ards	-1360
ler	-1361
▁several	-1362
▁given	-1363
▁Com	-1364
▁2017	-1365
udget	-1366
▁security	-1367
If	-1368
ednes	-1369
▁come	-1370
ednesday	-1371
af	-1372
▁mag	-1373
▁life	-1374
▁Franc	-1375
▁She	-1376
▁ed	-1377
ars	-1378
wh	-1379
She	-1380
enef	-1381
▁attack	-1382
▁question	-1383
▁Wednesday	-1384
agu	-1385
▁children	-1386
ada	-1387
▁town	-1388
▁Jr	-1389
▁issue	-1390
ways	-1391
▁candidate	-1392
▁activ	-1393
etition	-1394
▁Cent	-1395
▁implement	-1396
iving	-1397
oon	-1398
ama	-1399
▁cit	-1400
▁Malac	-1401
▁beh	-1402
ection	-1403
▁Metro	-1404
ger	-1405
▁nation	-1406
According	-1407
▁This	-1408
▁issued	-1409
EA	-1410
▁health	-1411
▁Francis	-1412
ys	-1413
▁represent	-1414
oro	-1415
▁maj	-1416
▁ste	-1417
iend	-1418
▁fire	-1419
idence	-1420
▁den	-1421
ished	-1422
▁II	-1423
▁Jan	-1424
▁Binay	-1425
ets	-1426
▁Act	-1427
▁benef	-1428
▁earlier	-1429
▁information	-1430
aining	-1431
▁Lib	-1432
ointed	-1433
▁econom	-1434
iron	-1435
▁current	-1436
añang	-1437
▁Supreme	-1438
IL	-1439
▁foreign	-1440
▁list	-1441
▁mess	-1442
uel	-1443
▁cour	-1444
▁"	-1445
▁Part	-1446
.,	-1447
▁change	-1448
iao	-1449
▁ra	-1450
▁protest	-1451
▁Pal	-1452
▁move	-1453
ten	-1454
osp	-1455
▁corru	-1456
▁mot	-1457
▁men	-1458
▁Lu	-1459
ience	-1460
▁Marawi	-1461
▁become	-1462
cept	-1463
▁came	-1464
▁met	-1465
▁exper	-1466
▁test	-1467
▁Jose	-1468
▁sold	-1469
▁countries	-1470
▁investigation	-1471
▁Sun	-1472
ato	-1473
▁Or	-1474
▁operations	-1475
▁Que	-1476
▁free	-1477
▁mar	-1478
orn	-1479
▁Chief	-1480
ecutive	-1481
year	-1482
lish	-1483
▁meeting	-1484
▁av	-1485
▁Poe	-1486
▁five	-1487
▁election	-1488
So	-1489
▁going	-1490
▁second	-1491
▁present	-1492
▁months	-1493
▁Pe	-1494
ck	-1495
quiao	-1496
ruct	-1497
oral	-1498
▁women	-1499
▁30	-1500
esperson	-1501
▁reporters	-1502
eni	-1503
▁author	-1504
▁read	-1505
▁ident	-1506
de	-1507
▁six	-1508
▁record	-1509
▁contract	-1510
▁cert	-1511
▁effect	-1512
▁groups	-1513
▁Law	-1514
til	-1515
▁event	-1516
▁12	-1517
▁won	-1518
▁known	-1519
ecially	-1520
cl	-1521
eld	-1522
ops	-1523
orts	-1524
▁mayor	-1525
▁never	-1526
▁account	-1527
▁Ex	-1528
▁friend	-1529
ex	-1530
▁sour	-1531
tle	-1532
▁ban	-1533
▁open	-1534
▁took	-1535
ians	-1536
▁criminal	-1537
▁Ros	-1538
▁assist	-1539
cil	-1540
err	-1541
espite	-1542
▁General	-1543
els	-1544
▁form	-1545
▁threat	-1546
▁cannot	-1547
yo	-1548
▁If	-1549
ocu	-1550
ross	-1551
ock	-1552
▁15	-1553
▁problem	-1554
▁Pr	-1555
▁val	-1556
▁buil	-1557
▁International	-1558
aged	-1559
▁night	-1560
ics	-1561
ird	-1562
▁esp	-1563
▁Br	-1564
▁suspect	-1565
mon	-1566
mediate	-1567
▁international	-1568
elebr	-1569
gress	-1570
▁budget	-1571
▁respect	-1572
▁expected	-1573
nal	-1574
alo	-1575
▁Sunday	-1576
▁agree	-1577
▁Malacañang	-1578
▁tak	-1579
▁charges	-1580
aker	-1581
▁each	-1582
uation	-1583
▁others	-1584
uds	-1585
▁areas	-1586
▁reb	-1587
▁American	-1588
ees	-1589
▁Christ	-1590
▁killings	-1591
ana	-1592
ister	-1593
▁better	-1594
▁however	-1595
ala	-1596
PA	-1597
unic	-1598
▁speech	-1599
▁Bureau	-1600
ata	-1601
icial	-1602
▁States	-1603
▁continue	-1604
▁Sp	-1605
▁el	-1606
DA	-1607
▁susp	-1608
▁received	-1609
▁lang	-1610
cement	-1611
▁polic	-1612
▁celebr	-1613
▁seem	-1614
▁Co	-1615
thing	-1616
▁That	-1617
▁Party	-1618
▁especially	-1619
▁able	-1620
▁land	-1621
oot	-1622
aily	-1623
nel	-1624
itor	-1625
pped	-1626
▁hour	-1627
▁live	-1628
▁legal	-1629
▁spokesperson	-1630
ati	-1631
▁showed	-1632
▁distr	-1633
▁allegedly	-1634
▁team	-1635
igr	-1636
▁host	-1637
▁immediate	-1638
▁June	-1639
ferent	-1640
▁personal	-1641
lam	-1642
▁jud	-1643
▁anti	-1644
rending	-1645
▁lat	-1646
▁Pacquiao	-1647
▁along	-1648
vey	-1649
▁lawy	-1650
▁place	-1651
▁justice	-1652
por	-1653
ising	-1654
▁famili	-1655
str	-1656
▁due	-1657
stand	-1658
ero	-1659
▁mass	-1660
viron	-1661
ination	-1662
BC	-1663
▁somet	-1664
▁protect	-1665
▁area	-1666
mbuds	-1667
▁always	-1668
agement	-1669
mbudsman	-1670
▁keep	-1671
ash	-1672
▁Quezon	-1673
vironment	-1674
FP	-1675
▁lot	-1676
▁best	-1677
▁less	-1678
sc	-1679
They	-1680
▁pen	-1681
▁Ma	-1682
▁You	-1683
▁got	-1684
▁mod	-1685
▁accused	-1686
10	-1687
ournal	-1688
be	-1689
▁until	-1690
oms	-1691
▁word	-1692
▁Gu	-1693
▁care	-1694
▁DO	-1695
▁dest	-1696
▁interest	-1697
▁proposed	-1698
▁Ind	-1699
ortun	-1700
▁hearing	-1701
▁Col	-1702
There	-1703
ension	-1704
▁News	-1705
trending	-1706
▁position	-1707
oci	-1708
tervista	-1709
my	-1710
▁Altervista	-1711
▁Pinoytrending	-1712
▁sent	-1713
▁page	-1714
▁join	-1715
▁Barangay	-1716
▁dead	-1717
▁Satur	-1718
▁different	-1719
▁candidates	-1720
1.	-1721
iding	-1722
▁Constitution	-1723
For	-1724
▁stop	-1725
echn	-1726
AT	-1727
atholic	-1728
▁Sur	-1729
▁sing	-1730
▁confir	-1731
▁Ombudsman	-1732
Sen	-1733
▁water	-1734
▁ko	-1735
tic	-1736
▁prep	-1737
aster	-1738
▁deal	-1739
▁member	-1740
▁proper	-1741
ched	-1742
▁private	-1743
mitted	-1744
▁agency	-1745
ai	-1746
erc	-1747
▁equ	-1748
▁Ed	-1749
▁Sant	-1750
▁ordered	-1751
iers	-1752
▁meas	-1753
▁within	-1754
▁Leni	-1755
▁non	-1756
▁might	-1757
▁service	-1758
▁Saturday	-1759
▁petition	-1760
of	-1761
▁late	-1762
▁bar	-1763
▁State	-1764
▁past	-1765
ospital	-1766
rel	-1767
▁Jo	-1768
▁too	-1769
▁home	-1770
▁poll	-1771
aced	-1772
undit	-1773
▁leader	-1774
▁Development	-1775
▁led	-1776
▁conv	-1777
idents	-1778
▁strong	-1779
50	-1780
ee	-1781
ny	-1782
▁went	-1783
▁At	-1784
▁tra	-1785
▁class	-1786
ories	-1787
▁GRPundit	-1788
▁bur	-1789
▁increase	-1790
ko	-1791
?”	-1792
▁old	-1793
▁prof	-1794
▁Ang	-1795
▁rice	-1796
ected	-1797
iversity	-1798
za	-1799
▁ens	-1800
▁following	-1801
tonio	-1802
▁didn	-1803
▁bring	-1804
▁left	-1805
▁Catholic	-1806
▁vote	-1807
▁docu	-1808
▁estab	-1809
▁poor	-1810
▁short	-1811
▁mo	-1812
▁fun	-1813
▁believe	-1814
▁victims	-1815
Al	-1816
▁total	-1817
imate	-1818
1,	-1819
▁lear	-1820
gy	-1821
▁posted	-1822
▁deb	-1823
▁lit	-1824
▁farm	-1825
▁families	-1826
hab	-1827
▁house	-1828
▁food	-1829
▁below	-1830
orm	-1831
▁Air	-1832
▁close	-1833
▁consid	-1834
▁cost	-1835
ES	-1836
ape	-1837
▁Ob	-1838
▁Kore	-1839
ulture	-1840
Un	-1841
▁based	-1842
▁respons	-1843
ibility	-1844
illa	-1845
▁gun	-1846
crib	-1847
▁play	-1848
log	-1849
▁South	-1850
▁comment	-1851
hers	-1852
▁explain	-1853
▁wanted	-1854
▁appe	-1855
HE	-1856
ify	-1857
▁full	-1858
incial	-1859
indi	-1860
oub	-1861
▁using	-1862
▁Ben	-1863
lec	-1864
▁gen	-1865
itness	-1866
▁making	-1867
▁corruption	-1868
▁reports	-1869
▁thought	-1870
ita	-1871
▁gl	-1872
▁community	-1873
ology	-1874
eg	-1875
▁Cal	-1876
▁neg	-1877
▁citizens	-1878
EN	-1879
ela	-1880
▁tour	-1881
ances	-1882
▁Donald	-1883
▁Antonio	-1884
▁fav	-1885
▁whether	-1886
▁secretary	-1887
▁III	-1888
▁away	-1889
encies	-1890
▁sk	-1891
▁hon	-1892
duc	-1893
▁Cab	-1894
▁respond	-1895
▁vice	-1896
▁inside	-1897
-1	-1898
ival	-1899
▁July	-1900
▁face	-1901
▁Presidential	-1902
rop	-1903
▁educ	-1904
▁Coun	-1905
irre	-1906
▁pus	-1907
ides	-1908
▁funds	-1909
▁Nor	-1910
SA	-1911
ceed	-1912
▁hist	-1913
▁things	-1914
▁hig	-1915
▁cho	-1916
▁Sep	-1917
▁reason	-1918
▁hol	-1919
▁mis	-1920
▁term	-1921
most	-1922
▁par	-1923
▁instead	-1924
▁possible	-1925
▁company	-1926
President	-1927
gu	-1928
▁impro	-1929
▁released	-1930
▁self	-1931
urned	-1932
ights	-1933
▁hope	-1934
▁few	-1935
▁Represent	-1936
▁Wor	-1937
▁projects	-1938
▁supposed	-1939
▁chall	-1940
▁officers	-1941
isl	-1942
affic	-1943
▁repl	-1944
▁sure	-1945
▁Oct	-1946
▁resul	-1947
▁wa	-1948
hern	-1949
IN	-1950
nd	-1951
arc	-1952
ont	-1953
▁says	-1954
MA	-1955
ccess	-1956
▁ce	-1957
▁once	-1958
▁signed	-1959
▁ans	-1960
iously	-1961
▁inter	-1962
▁comple	-1963
ivid	-1964
inese	-1965
▁init	-1966
lev	-1967
omb	-1968
▁nothing	-1969
ners	-1970
▁laun	-1971
▁arr	-1972
▁mark	-1973
▁There	-1974
▁clear	-1975
▁behind	-1976
▁gave	-1977
▁13	-1978
▁14	-1979
▁Direct	-1980
ality	-1981
▁later	-1982
ined	-1983
ilo	-1984
▁having	-1985
▁martial	-1986
▁Res	-1987
▁body	-1988
▁Car	-1989
▁Med	-1990
▁done	-1991
▁Sal	-1992
▁Vis	-1993
▁worth	-1994
oss	-1995
uted	-1996
selves	-1997
▁started	-1998
▁doing	-1999
▁final	-2000
▁car	-2001
▁Rosa	-2002
▁complaint	-2003
▁himself	-2004
▁bre	-2005
ester	-2006
▁issues	-2007
▁students	-2008
2.	-2009
iñ	-2010
augh	-2011
▁journal	-2012
▁building	-2013
▁recently	-2014
▁services	-2015
▁message	-2016
yes	-2017
▁eng	-2018
▁hold	-2019
▁cover	-2020
▁something	-2021
ago	-2022
aya	-2023
ored	-2024
▁imm	-2025
▁carr	-2026
▁hard	-2027
comment	-2028
▁travel	-2029
irc	-2030
▁conn	-2031
iment	-2032
iverse	-2033
▁address	-2034
What	-2035
anga	-2036
EL	-2037
▁sum	-2038
▁taken	-2039
At	-2040
▁lo	-2041
CC	-2042
▁enc	-2043
▁sw	-2044
ilities	-2045
▁spec	-2046
appler	-2047
▁198	-2048
▁sal	-2049
itional	-2050
▁coming	-2051
▁ap	-2052
vest	-2053
▁Mak	-2054
▁running	-2055
Ch	-2056
▁seen	-2057
▁claimed	-2058
▁Chinese	-2059
▁18	-2060
▁veh	-2061
ession	-2062
CO	-2063
fer	-2064
▁2015	-2065
▁ca	-2066
▁product	-2067
▁arrested	-2068
▁special	-2069
▁simp	-2070
▁needs	-2071
▁matter	-2072
▁prosec	-2073
▁development	-2074
oming	-2075
▁design	-2076
ado	-2077
era	-2078
▁25	-2079
▁On	-2080
ification	-2081
ruction	-2082
▁enough	-2083
ivision	-2084
sh	-2085
umb	-2086
rown	-2087
▁popular	-2088
ebu	-2089
▁Director	-2090
arm	-2091
▁command	-2092
▁despite	-2093
▁involved	-2094
ature	-2095
ulation	-2096
iod	-2097
inet	-2098
ovember	-2099
3.	-2100
▁Bo	-2101
▁vir	-2102
ability	-2103
▁di	-2104
▁extr	-2105
▁traffic	-2106
while	-2107
▁declared	-2108
▁March	-2109
overed	-2110
▁director	-2111
▁denied	-2112
▁soldiers	-2113
aries	-2114
▁economic	-2115
eter	-2116
▁controvers	-2117
▁Min	-2118
▁civ	-2119
▁officer	-2120
▁supporters	-2121
reet	-2122
▁comments	-2123
gin	-2124
▁So	-2125
▁region	-2126
▁survey	-2127
▁witness	-2128
ean	-2129
▁lawm	-2130
▁resolution	-2131
▁allowed	-2132
▁general	-2133
▁find	-2134
ging	-2135
▁box	-2136
▁evidence	-2137
▁1,	-2138
▁resign	-2139
201	-2140
▁16	-2141
aled	-2142
▁provide	-2143
▁November	-2144
▁Sh	-2145
anda	-2146
wide	-2147
▁view	-2148
▁Luzon	-2149
▁const	-2150
▁govern	-2151
▁Jap	-2152
▁noted	-2153
ividual	-2154
ares	-2155
▁Asia	-2156
urther	-2157
airs	-2158
▁perform	-2159
ternet	-2160
uck	-2161
▁disp	-2162
▁immediately	-2163
ogn	-2164
uary	-2165
▁pat	-2166
▁suff	-2167
▁hours	-2168
▁sol	-2169
▁Pang	-2170
▁Net	-2171
▁var	-2172
eat	-2173
▁result	-2174
▁Roque	-2175
▁level	-2176
▁means	-2177
▁11	-2178
inking	-2179
▁agencies	-2180
here	-2181
▁road	-2182
▁award	-2183
30	-2184
▁pract	-2185
▁ground	-2186
▁dism	-2187
ential	-2188
▁tell	-2189
ural	-2190
omelec	-2191
▁favor	-2192
▁point	-2193
▁success	-2194
aut	-2195
akers	-2196
----------------	-2197
ither	-2198
▁great	-2199
▁online	-2200
▁youn	-2201
ED	-2202
IA	-2203
▁occ	-2204
▁photo	-2205
▁whose	-2206
▁authorities	-2207
▁ty	-2208
▁dam	-2209
akes	-2210
▁Rappler	-2211
▁happened	-2212
RT	-2213
side	-2214
cember	-2215
▁deter	-2216
by	-2217
▁vac	-2218
▁policy	-2219
int	-2220
▁lar	-2221
BI	-2222
▁Dr	-2223
▁third	-2224
ador	-2225
▁operation	-2226
oren	-2227
▁wants	-2228
▁legisl	-2229
▁brought	-2230
uro	-2231
ardo	-2232
▁penal	-2233
▁December	-2234
▁eas	-2235
▁propos	-2236
▁hospital	-2237
▁individual	-2238
ift	-2239
each	-2240
▁activities	-2241
ening	-2242
▁important	-2243
yn	-2244
aga	-2245
▁discussion	-2246
lor	-2247
▁story	-2248
.’	-2249
arez	-2250
▁Universe	-2251
▁17	-2252
▁expl	-2253
▁father	-2254
▁hit	-2255
▁Obama	-2256
unt	-2257
NA	-2258
tp	-2259
▁Aug	-2260
▁All	-2261
ically	-2262
▁friends	-2263
▁University	-2264
▁ask	-2265
▁Cebu	-2266
ih	-2267
ones	-2268
▁employees	-2269
▁Feb	-2270
▁son	-2271
▁mean	-2272
▁leave	-2273
FA	-2274
▁Te	-2275
▁appear	-2276
ayas	-2277
▁exc	-2278
▁course	-2279
▁Esp	-2280
▁tro	-2281
//	-2282
▁Bal	-2283
▁sect	-2284
pted	-2285
://	-2286
▁grant	-2287
▁Cr	-2288
alled	-2289
▁reve	-2290
▁Bat	-2291
▁latest	-2292
▁actually	-2293
ots	-2294
▁Center	-2295
That	-2296
▁pan	-2297
pril	-2298
▁urged	-2299
hilippines	-2300
▁foc	-2301
▁sep	-2302
▁promot	-2303
▁expressed	-2304
ony	-2305
anch	-2306
ecess	-2307
▁bank	-2308
3,	-2309
▁assistance	-2310
ici	-2311
▁ren	-2312
▁board	-2313
▁working	-2314
▁personnel	-2315
▁trad	-2316
▁conducted	-2317
ats	-2318
▁2018	-2319
▁ensure	-2320
▁opposition	-2321
lim	-2322
ources	-2323
ij	-2324
▁Bu	-2325
▁lawyer	-2326
▁ide	-2327
▁period	-2328
▁senators	-2329
▁lim	-2330
reno	-2331
▁killing	-2332
tered	-2333
▁shall	-2334
ached	-2335
▁relations	-2336
▁grow	-2337
owever	-2338
EC	-2339
▁Il	-2340
▁Bar	-2341
▁lost	-2342
▁April	-2343
▁techn	-2344
▁executive	-2345
ounts	-2346
▁became	-2347
▁infl	-2348
▁stay	-2349
igan	-2350
▁certain	-2351
▁compan	-2352
▁Em	-2353
ober	-2354
▁watch	-2355
▁People	-2356
▁Ram	-2357
avy	-2358
inas	-2359
▁times	-2360
▁January	-2361
▁Visayas	-2362
▁establish	-2363
PP	-2364
▁request	-2365
▁particip	-2366
▁North	-2367
▁turn	-2368
▁cust	-2369
▁separ	-2370
hib	-2371
ilar	-2372
raft	-2373
▁Agu	-2374
▁themselves	-2375
▁ago	-2376
atory	-2377
▁recogn	-2378
esterday	-2379
▁Vill	-2380
▁laws	-2381
▁wrong	-2382
hold	-2383
ream	-2384
▁tar	-2385
▁major	-2386
ederal	-2387
▁taking	-2388
ke	-2389
▁Auth	-2390
▁true	-2391
▁early	-2392
▁Council	-2393
agal	-2394
▁mov	-2395
din	-2396
▁failed	-2397
ID	-2398
iety	-2399
▁Republican	-2400
▁hous	-2401
ittee	-2402
▁include	-2403
▁suspects	-2404
na	-2405
wa	-2406
▁App	-2407
▁hom	-2408
under	-2409
▁describ	-2410
▁further	-2411
▁Dem	-2412
▁God	-2413
aught	-2414
▁particular	-2415
▁condition	-2416
pro	-2417
▁mor	-2418
work	-2419
4.	-2420
ustry	-2421
ags	-2422
arent	-2423
▁conference	-2424
▁Representatives	-2425
Tr	-2426
And	-2427
win	-2428
▁incident	-2429
alf	-2430
DO	-2431
▁Ph	-2432
▁Fer	-2433
▁Bang	-2434
▁situation	-2435
▁fake	-2436
▁World	-2437
▁respon	-2438
▁elected	-2439
▁understand	-2440
2,	-2441
rap	-2442
▁kid	-2443
▁Islam	-2444
▁Liberal	-2445
▁environment	-2446
▁answ	-2447
anger	-2448
▁Norte	-2449
▁aud	-2450
izing	-2451
portation	-2452
▁wife	-2453
▁super	-2454
▁thous	-2455
▁lack	-2456
▁various	-2457
▁fa	-2458
▁Group	-2459
▁agreement	-2460
inan	-2461
▁congress	-2462
▁confirmed	-2463
otto	-2464
▁action	-2465
▁source	-2466
SO	-2467
ma	-2468
▁toget	-2469
Mar	-2470
▁Hon	-2471
▁jail	-2472
▁residents	-2473
▁together	-2474
▁Sy	-2475
pping	-2476
tember	-2477
▁produ	-2478
▁regard	-2479
▁100	-2480
▁trade	-2481
idency	-2482
▁fir	-2483
▁Leila	-2484
▁concern	-2485
▁return	-2486
http	-2487
ises	-2488
▁marr	-2489
aughter	-2490
ask	-2491
▁Corp	-2492
▁reform	-2493
▁Do	-2494
▁Maria	-2495
▁labor	-2496
▁ruling	-2497
▁efforts	-2498
▁ako	-2499
▁Mus	-2500
ilon	-2501
▁circ	-2502
▁prevent	-2503
▁THE	-2504
ocial	-2505
▁Trans	-2506
▁October	-2507
ively	-2508
▁upon	-2509
▁contrib	-2510
aps	-2511
▁Associ	-2512
over	-2513
▁prices	-2514
▁Pan	-2515
▁bid	-2516
▁Authority	-2517
una	-2518
When	-2519
venue	-2520
▁soon	-2521
▁lives	-2522
▁talks	-2523
▁approved	-2524
ule	-2525
▁stat	-2526
▁crime	-2527
izen	-2528
▁side	-2529
reedom	-2530
▁Makati	-2531
▁sug	-2532
▁almost	-2533
▁affected	-2534
erring	-2535
read	-2536
▁longer	-2537
bs	-2538
▁OF	-2539
▁letter	-2540
▁rad	-2541
epend	-2542
atural	-2543
▁Region	-2544
▁Health	-2545
▁Daily	-2546
▁September	-2547
cy	-2548
▁brief	-2549
▁Russ	-2550
▁telev	-2551
You	-2552
udicial	-2553
eanwhile	-2554
ode	-2555
varez	-2556
▁talk	-2557
4,	-2558
▁Day	-2559
▁hop	-2560
▁named	-2561
▁dev	-2562
▁blog	-2563
▁saw	-2564
▁enfor	-2565
▁woman	-2566
▁Government	-2567
▁trust	-2568
▁opportun	-2569
▁identified	-2570
To	-2571
uev	-2572
▁tem	-2573
▁force	-2574
▁Church	-2575
▁regional	-2576
▁develop	-2577
royo	-2578
philippines	-2579
inton	-2580
▁Yellow	-2581
▁dismiss	-2582
oke	-2583
▁Mo	-2584
▁entire	-2585
uses	-2586
▁demand	-2587
real	-2588
erate	-2589
osing	-2590
▁education	-2591
▁companies	-2592
▁ka	-2593
▁cred	-2594
▁trying	-2595
▁farmers	-2596
asa	-2597
ayo	-2598
▁La	-2599
▁inj	-2600
▁low	-2601
▁tre	-2602
▁Army	-2603
▁Administr	-2604
Noy	-2605
▁rehab	-2606
▁impeach	-2607
▁miss	-2608
▁avail	-2609
▁cause	-2610
▁Forces	-2611
▁TV	-2612
▁concer	-2613
▁decided	-2614
itter	-2615
▁Sand	-2616
▁America	-2617
▁release	-2618
ield	-2619
▁mal	-2620
▁passeng	-2621
IS	-2622
ades	-2623
▁ear	-2624
bayan	-2625
cha	-2626
▁near	-2627
▁Cabinet	-2628
ris	-2629
▁included	-2630
▁Cast	-2631
▁hindi	-2632
▁expect	-2633
ium	-2634
▁serve	-2635
▁Sereno	-2636
6.	-2637
▁fut	-2638
▁kind	-2639
idered	-2640
▁ple	-2641
inary	-2642
▁film	-2643
▁Pilip	-2644
▁comes	-2645
▁Maute	-2646
▁Comment	-2647
ayet	-2648
ump	-2649
▁pur	-2650
▁financ	-2651
ruz	-2652
▁Uson	-2653
▁thing	-2654
stitutional	-2655
▁department	-2656
ery	-2657
iet	-2658
With	-2659
▁Mat	-2660
▁small	-2661
▁treat	-2662
ayetano	-2663
imentel	-2664
▁mother	-2665
Meanwhile	-2666
ably	-2667
inces	-2668
▁doub	-2669
esty	-2670
▁Feat	-2671
ER	-2672
▁Pope	-2673
▁results	-2674
▁applic	-2675
▁Featured	-2676
No	-2677
yan	-2678
▁asking	-2679
▁history	-2680
▁hot	-2681
▁nom	-2682
iya	-2683
▁pri	-2684
▁line	-2685
▁capital	-2686
▁challen	-2687
OR	-2688
▁Sc	-2689
▁mid	-2690
aging	-2691
▁distrib	-2692
▁considered	-2693
▁forces	-2694
▁What	-2695
▁hear	-2696
▁file	-2697
▁joint	-2698
▁truth	-2699
▁attend	-2700
iction	-2701
While	-2702
▁cited	-2703
▁bat	-2704
▁Clinton	-2705
▁SA	-2706
opez	-2707
asing	-2708
▁share	-2709
▁Hol	-2710
irl	-2711
itive	-2712
▁mention	-2713
ury	-2714
▁Tw	-2715
▁Inc	-2716
▁cop	-2717
▁sex	-2718
▁love	-2719
▁chang	-2720
Now	-2721
▁mur	-2722
▁Asian	-2723
▁colle	-2724
▁majority	-2725
▁writ	-2726
igration	-2727
ins	-2728
isting	-2729
ida	-2730
dinand	-2731
▁Assist	-2732
▁previous	-2733
▁mand	-2734
▁mind	-2735
▁programs	-2736
ental	-2737
▁society	-2738
▁documents	-2739
urt	-2740
▁art	-2741
▁committed	-2742
▁yesterday	-2743
▁Im	-2744
▁vol	-2745
iano	-2746
ently	-2747
ructure	-2748
▁CO	-2749
▁died	-2750
▁vill	-2751
val	-2752
▁provincial	-2753
▁50	-2754
▁Mac	-2755
▁seems	-2756
▁control	-2757
▁pointed	-2758
▁heart	-2759
▁airport	-2760
▁policemen	-2761
▁Pa	-2762
▁Camp	-2763
action	-2764
▁improve	-2765
arian	-2766
rents	-2767
▁Join	-2768
band	-2769
▁market	-2770
▁reportedly	-2771
ters	-2772
▁accept	-2773
▁brother	-2774
▁units	-2775
▁organiz	-2776
AR	-2777
▁199	-2778
acson	-2779
▁Committee	-2780
uled	-2781
phoon	-2782
▁calling	-2783
Mr	-2784
▁future	-2785
▁thousands	-2786
▁tit	-2787
going	-2788
▁Serv	-2789
▁giving	-2790
▁surren	-2791
▁voters	-2792
▁toward	-2793
page	-2794
quir	-2795
▁votes	-2796
cle	-2797
ney	-2798
▁remains	-2799
▁anything	-2800
▁response	-2801
9,	-2802
llig	-2803
▁rules	-2804
aft	-2805
ruary	-2806
time	-2807
igation	-2808
Ar	-2809
▁abs	-2810
▁ran	-2811
▁book	-2812
▁staff	-2813
▁Regional	-2814
▁Ferdinand	-2815
▁Jes	-2816
ocal	-2817
▁ever	-2818
▁feel	-2819
▁politics	-2820
based	-2821
▁Inter	-2822
▁doesn	-2823
bay	-2824
ills	-2825
obal	-2826
▁Par	-2827
▁problems	-2828
▁fear	-2829
▁warr	-2830
lished	-2831
▁price	-2832
▁served	-2833
▁bad	-2834
▁saf	-2835
▁wal	-2836
,’	-2837
apol	-2838
ames	-2839
▁bul	-2840
▁Islamic	-2841
▁regular	-2842
ude	-2843
▁Pl	-2844
▁blood	-2845
▁accounts	-2846
ipal	-2847
▁Spe	-2848
After	-2849
▁Cust	-2850
▁words	-2851
▁Democr	-2852
▁television	-2853
pet	-2854
▁Noy	-2855
mission	-2856
▁target	-2857
hest	-2858
strada	-2859
▁require	-2860
auty	-2861
▁AFP	-2862
▁February	-2863
▁amount	-2864
▁medical	-2865
▁boy	-2866
▁pag	-2867
▁explained	-2868
▁Can	-2869
▁paid	-2870
▁turned	-2871
▁rehabilit	-2872
▁step	-2873
▁barangay	-2874
▁ST	-2875
▁Rom	-2876
▁wel	-2877
ias	-2878
aded	-2879
▁Be	-2880
▁atte	-2881
▁Ele	-2882
▁twe	-2883
▁Def	-2884
▁teac	-2885
▁Comelec	-2886
De	-2887
▁pes	-2888
▁Cruz	-2889
using	-2890
▁allegations	-2891
mpt	-2892
chie	-2893
iance	-2894
utes	-2895
▁needed	-2896
▁appoint	-2897
▁subject	-2898
▁und	-2899
▁coop	-2900
▁Armed	-2901
▁recomm	-2902
PO	-2903
ember	-2904
▁politicians	-2905
▁ay	-2906
▁purs	-2907
▁role	-2908
AN	-2909
▁PH	-2910
▁collect	-2911
▁Association	-2912
▁sat	-2913
During	-2914
▁front	-2915
rom	-2916
ront	-2917
▁ball	-2918
▁daughter	-2919
▁questions	-2920
uing	-2921
▁fish	-2922
▁rally	-2923
▁federal	-2924
▁provision	-2925
ando	-2926
▁ship	-2927
▁safety	-2928
▁Francisco	-2929
SW	-2930
▁Social	-2931
▁leadership	-2932
▁hus	-2933
▁statements	-2934
▁island	-2935
▁warned	-2936
▁orig	-2937
▁cance	-2938
remon	-2939
ounded	-2940
▁motor	-2941
▁rebels	-2942
PC	-2943
▁webs	-2944
▁finally	-2945
ume	-2946
▁port	-2947
▁claims	-2948
▁destro	-2949
▁yellow	-2950
▁pot	-2951
gency	-2952
▁Drug	-2953
▁August	-2954
▁Alvarez	-2955
▁believed	-2956
▁young	-2957
▁PD	-2958
▁morning	-2959
hn	-2960
bed	-2961
▁mult	-2962
▁answer	-2963
▁Agr	-2964
▁Cap	-2965
▁maint	-2966
▁penalty	-2967
▁provinces	-2968
olo	-2969
▁getting	-2970
▁outside	-2971
6,	-2972
▁PC	-2973
aces	-2974
▁Labor	-2975
▁li	-2976
▁kil	-2977
▁Grace	-2978
▁honor	-2979
▁begin	-2980
▁admitted	-2981
▁photos	-2982
▁remain	-2983
▁...	-2984
▁whole	-2985
▁democr	-2986
blog	-2987
▁Lopez	-2988
den	-2989
eks	-2990
rect	-2991
▁light	-2992
▁access	-2993
▁financial	-2994
▁aut	-2995
▁schools	-2996
▁Mag	-2997
▁emer	-2998
▁pack	-2999
arry	-3000
▁debate	-3001
▁rule	-3002
▁seven	-3003
rast	-3004
▁lawmakers	-3005
▁pageant	-3006
EO	-3007
ticle	-3008
▁Airport	-3009
IC	-3010
icult	-3011
river	-3012
▁dict	-3013
▁safe	-3014
▁negot	-3015
▁obs	-3016
▁red	-3017
aling	-3018
▁cash	-3019
▁phone	-3020
▁agreed	-3021
/201	-3022
▁Sea	-3023
▁achie	-3024
▁sched	-3025
▁ceremon	-3026
▁someone	-3027
rew	-3028
ustr	-3029
▁referring	-3030
▁Val	-3031
▁necess	-3032
adem	-3033
▁Sout	-3034
ducation	-3035
▁cal	-3036
change	-3037
icated	-3038
▁Er	-3039
ordon	-3040
▁rate	-3041
erated	-3042
RO	-3043
uge	-3044
▁plans	-3045
▁passed	-3046
▁Ac	-3047
▁Carl	-3048
▁looking	-3049
▁parents	-3050
▁proceed	-3051
St	-3052
▁amb	-3053
list	-3054
▁Rev	-3055
▁Say	-3056
▁dom	-3057
lands	-3058
▁everyone	-3059
▁presidency	-3060
.)	-3061
isc	-3062
uan	-3063
▁common	-3064
▁described	-3065
▁implementation	-3066
idel	-3067
▁lic	-3068
▁pap	-3069
▁either	-3070
▁cut	-3071
▁spokes	-3072
▁concerned	-3073
▁UN	-3074
amar	-3075
▁terrorist	-3076
▁adding	-3077
ane	-3078
▁OFW	-3079
▁weeks	-3080
realphilippines	-3081
arch	-3082
▁announcement	-3083
reen	-3084
▁Japan	-3085
▁Speaker	-3086
▁separate	-3087
reg	-3088
ecause	-3089
▁commission	-3090
ILF	-3091
aud	-3092
pol	-3093
▁Las	-3094
▁One	-3095
▁sto	-3096
isher	-3097
▁pork	-3098
estern	-3099
▁victim	-3100
▁Korea	-3101
orter	-3102
▁Abu	-3103
▁Bor	-3104
▁impeachment	-3105
ateg	-3106
▁qual	-3107
▁counter	-3108
▁provided	-3109
no	-3110
inosa	-3111
▁Bong	-3112
▁check	-3113
▁charged	-3114
uk	-3115
▁24	-3116
▁vers	-3117
elfare	-3118
▁industry	-3119
▁Je	-3120
▁sche	-3121
aration	-3122
▁similar	-3123
▁Cayetano	-3124
mar	-3125
▁suggest	-3126
”.	-3127
sam	-3128
imum	-3129
▁kas	-3130
▁half	-3131
▁independ	-3132
▁i	-3133
oud	-3134
▁buy	-3135
▁nag	-3136
▁husband	-3137
▁proposal	-3138
▁Bas	-3139
▁Lag	-3140
▁Bill	-3141
▁vehicles	-3142
▁Supt	-3143
▁Sotto	-3144
▁relig	-3145
▁inquir	-3146
▁netizens	-3147
rd	-3148
▁emb	-3149
▁capt	-3150
▁redu	-3151
▁across	-3152
ali	-3153
▁chance	-3154
▁living	-3155
▁revealed	-3156
▁particularly	-3157
earch	-3158
▁Juan	-3159
▁profess	-3160
▁Pimentel	-3161
▁ni	-3162
▁bir	-3163
ences	-3164
▁shows	-3165
wan	-3166
ella	-3167
▁clos	-3168
▁data	-3169
kn	-3170
ari	-3171
uris	-3172
▁ful	-3173
▁mom	-3174
pir	-3175
ush	-3176
▁lord	-3177
▁Invest	-3178
▁Estrada	-3179
▁nationwide	-3180
abu	-3181
▁often	-3182
▁beauty	-3183
▁scheduled	-3184
rastructure	-3185
▁pub	-3186
▁Iloc	-3187
▁hero	-3188
▁Aguirre	-3189
oday	-3190
▁lib	-3191
lying	-3192
usion	-3193
▁asse	-3194
▁fair	-3195
▁White	-3196
▁Palace	-3197
▁measure	-3198
▁Executive	-3199
▁violation	-3200
esc	-3201
▁Pas	-3202
▁Force	-3203
▁higher	-3204
iliz	-3205
like	-3206
▁Distr	-3207
autista	-3208
SS	-3209
▁gay	-3210
▁Education	-3211
7,	-3212
oid	-3213
▁pray	-3214
▁quick	-3215
▁Am	-3216
▁Ger	-3217
samoro	-3218
▁prison	-3219
▁Americans	-3220
▁z	-3221
▁happen	-3222
▁negoti	-3223
▁Stories	-3224
▁Public	-3225
▁website	-3226
▁fall	-3227
▁radio	-3228
▁terms	-3229
▁driver	-3230
▁review	-3231
▁individuals	-3232
ña	-3233
▁chairman	-3234
unications	-3235
body	-3236
lled	-3237
▁Manny	-3238
▁build	-3239
▁simply	-3240
▁spokesman	-3241
▁ut	-3242
ager	-3243
▁NPA	-3244
▁sil	-3245
fully	-3246
▁speak	-3247
7.	-3248
arb	-3249
▁Ge	-3250
▁John	-3251
▁passengers	-3252
isk	-3253
▁dist	-3254
ensive	-3255
▁Division	-3256
pre	-3257
▁ready	-3258
8,	-3259
▁raised	-3260
▁Human	-3261
▁Mocha	-3262
▁armed	-3263
▁encour	-3264
▁fighting	-3265
▁rese	-3266
▁surpr	-3267
seas	-3268
▁barrel	-3269
▁connection	-3270
arth	-3271
tiver	-3272
▁whom	-3273
▁leading	-3274
▁construction	-3275
9.	-3276
amed	-3277
▁comb	-3278
tiveros	-3279
▁products	-3280
BL	-3281
▁LP	-3282
anar	-3283
▁additional	-3284
▁rehabilitation	-3285
igno	-3286
▁key	-3287
However	-3288
▁senior	-3289
ployment	-3290
▁District	-3291
Under	-3292
▁shot	-3293
▁charge	-3294
▁center	-3295
ez	-3296
enses	-3297
▁meant	-3298
▁benefits	-3299
▁required	-3300
▁transfer	-3301
▁Management	-3302
▁.	-3303
dle	-3304
▁Nations	-3305
OC	-3306
▁Let	-3307
▁coup	-3308
▁persons	-3309
ader	-3310
come	-3311
iri	-3312
oll	-3313
apoles	-3314
undred	-3315
▁trial	-3316
▁consum	-3317
do	-3318
iago	-3319
imin	-3320
▁unf	-3321
though	-3322
▁tried	-3323
ases	-3324
▁His	-3325
▁Mart	-3326
▁basic	-3327
▁seeking	-3328
ishop	-3329
ender	-3330
▁text	-3331
▁bomb	-3332
▁Bayan	-3333
▁First	-3334
▁Benigno	-3335
▁Central	-3336
urope	-3337
▁birth	-3338
▁clean	-3339
aban	-3340
exic	-3341
aming	-3342
▁little	-3343
▁single	-3344
▁Martial	-3345
▁criticized	-3346
BS	-3347
▁-	-3348
acay	-3349
▁currently	-3350
ani	-3351
▁West	-3352
▁eight	-3353
▁happy	-3354
▁serious	-3355
▁Bangsamoro	-3356
wor	-3357
lligence	-3358
▁purch	-3359
▁complete	-3360
rowd	-3361
▁exam	-3362
▁girl	-3363
▁kung	-3364
00,000	-3365
▁taxes	-3366
▁destroy	-3367
▁appointed	-3368
▁Her	-3369
▁pun	-3370
▁Customs	-3371
▁partners	-3372
▁study	-3373
▁Lacson	-3374
▁biggest	-3375
▁sust	-3376
ajudicial	-3377
▁suspected	-3378
HR	-3379
reng	-3380
▁poin	-3381
▁Jesus	-3382
▁caught	-3383
▁ill	-3384
▁else	-3385
▁Board	-3386
▁filing	-3387
pposition	-3388
MM	-3389
emor	-3390
▁Eng	-3391
▁influ	-3392
▁pesos	-3393
▁itself	-3394
.‘	-3395
mas	-3396
▁Qu	-3397
▁Anti	-3398
inance	-3399
▁princ	-3400
▁prosecut	-3401
▁El	-3402
▁Bagu	-3403
▁forward	-3404
▁grad	-3405
dr	-3406
Last	-3407
▁Sara	-3408
▁diff	-3409
▁graft	-3410
▁attacks	-3411
▁critics	-3412
/0	-3413
▁Di	-3414
ires	-3415
▁opin	-3416
▁purp	-3417
8.	-3418
▁Prov	-3419
5.	-3420
ties	-3421
▁Interior	-3422
16	-3423
cial	-3424
▁Angel	-3425
▁Rights	-3426
▁disapp	-3427
▁prohib	-3428
▁sector	-3429
▁inquiry	-3430
▁experience	-3431
ueva	-3432
ading	-3433
▁displ	-3434
orthern	-3435
amas	-3436
▁Leon	-3437
NC	-3438
awa	-3439
▁rather	-3440
▁Espinosa	-3441
yte	-3442
▁supply	-3443
▁launched	-3444
arily	-3445
Aquino	-3446
▁Europe	-3447
▁infrastructure	-3448
▁danger	-3449
▁management	-3450
),”	-3451
▁break	-3452
▁langu	-3453
▁plant	-3454
▁compet	-3455
▁troops	-3456
▁believes	-3457
Am	-3458
bo	-3459
hel	-3460
▁40	-3461
▁Pat	-3462
▁enj	-3463
▁continued	-3464
ample	-3465
▁motion	-3466
sy	-3467
hol	-3468
ott	-3469
lege	-3470
▁Ale	-3471
▁everything	-3472
PD	-3473
ona	-3474
ello	-3475
▁Special	-3476
▁sources	-3477
▁VP	-3478
Some	-3479
oul	-3480
izal	-3481
▁Boracay	-3482
▁terrorists	-3483
Rob	-3484
▁oust	-3485
arently	-3486
▁Santos	-3487
▁controversial	-3488
!”	-3489
lin	-3490
ails	-3491
itation	-3492
ounding	-3493
▁charact	-3494
▁difficult	-3495
atin	-3496
▁reach	-3497
▁tweet	-3498
ultural	-3499
▁er	-3500
▁Loren	-3501
▁showing	-3502
▁Su	-3503
▁vo	-3504
▁Castro	-3505
▁warrant	-3506
acan	-3507
isted	-3508
▁Fore	-3509
▁Ilocos	-3510
▁express	-3511
▁briefing	-3512
AC	-3513
ept	-3514
▁advoc	-3515
▁mater	-3516
▁actions	-3517
▁criticism	-3518
aran	-3519
▁lin	-3520
icted	-3521
▁2016.	-3522
▁voted	-3523
▁Pilipinas	-3524
Ed	-3525
ENR	-3526
ests	-3527
aters	-3528
▁2016,	-3529
Ph	-3530
ugg	-3531
rote	-3532
ternal	-3533
▁crowd	-3534
▁daily	-3535
▁focus	-3536
▁sought	-3537
▁protection	-3538
▁receive	-3539
erve	-3540
▁Gen	-3541
▁esc	-3542
▁ones	-3543
▁shoot	-3544
ming	-3545
▁Sayy	-3546
▁defense	-3547
▁organization	-3548
road	-3549
▁age	-3550
order	-3551
▁black	-3552
▁detained	-3553
▁div	-3554
usive	-3555
▁discl	-3556
▁panel	-3557
▁Sayyaf	-3558
▁correct	-3559
ya	-3560
▁conflic	-3561
▁consult	-3562
▁names	-3563
▁offer	-3564
▁murder	-3565
arter	-3566
▁basis	-3567
ends	-3568
▁din	-3569
ograp	-3570
▁trip	-3571
▁yung	-3572
▁agric	-3573
▁parts	-3574
▁crimes	-3575
▁relationship	-3576
▁har	-3577
▁exerc	-3578
▁initial	-3579
▁approval	-3580
▁opportunity	-3581
▁21	-3582
▁fans	-3583
▁vacc	-3584
▁willing	-3585
▁fig	-3586
ordin	-3587
▁millions	-3588
▁attention	-3589
▁Hontiveros	-3590
ipl	-3591
heast	-3592
igned	-3593
where	-3594
▁trib	-3595
▁states	-3596
▁freedom	-3597
▁potential	-3598
▁High	-3599
▁Chair	-3600
▁Union	-3601
▁streng	-3602
▁Program	-3603
One	-3604
ley	-3605
▁York	-3606
▁flood	-3607
▁population	-3608
che	-3609
▁sn	-3610
▁compl	-3611
▁initi	-3612
▁benefit	-3613
Ro	-3614
▁Per	-3615
▁When	-3616
▁natural	-3617
Today	-3618
light	-3619
▁Kris	-3620
ashing	-3621
▁council	-3622
▁parties	-3623
▁Administration	-3624
uff	-3625
▁income	-3626
▁reached	-3627
▁measures	-3628
ounds	-3629
▁Mark	-3630
▁available	-3631
RC	-3632
bid	-3633
iant	-3634
enced	-3635
billion	-3636
▁cities	-3637
▁Twitter	-3638
aving	-3639
▁para	-3640
▁repe	-3641
▁scam	-3642
ilinan	-3643
▁enjoy	-3644
▁spread	-3645
▁communities	-3646
AL	-3647
iven	-3648
▁Aff	-3649
▁2010	-3650
▁youth	-3651
▁church	-3652
▁highest	-3653
▁learned	-3654
iganbayan	-3655
fact	-3656
▁bal	-3657
▁try	-3658
astic	-3659
▁site	-3660
▁makes	-3661
million	-3662
▁suspension	-3663
▁responsible	-3664
▁BI	-3665
▁deep	-3666
▁fast	-3667
▁value	-3668
▁Ronald	-3669
TC	-3670
iage	-3671
wise	-3672
unicipal	-3673
▁followed	-3674
▁authority	-3675
▁faith	-3676
▁Muslim	-3677
▁deaths	-3678
▁series	-3679
NN	-3680
PNP	-3681
▁Rizal	-3682
▁Assistant	-3683
▁1.	-3684
awan	-3685
iled	-3686
▁Mexic	-3687
▁heard	-3688
ampanga	-3689
▁annual	-3690
ulations	-3691
▁consider	-3692
▁sho	-3693
▁Arroyo	-3694
▁Sandiganbayan	-3695
vert	-3696
▁session	-3697
Do	-3698
uit	-3699
▁attr	-3700
▁Bautista	-3701
▁Internet	-3702
head	-3703
vere	-3704
▁feat	-3705
icient	-3706
▁prove	-3707
▁contest	-3708
▁hy	-3709
▁idea	-3710
▁sell	-3711
▁apolog	-3712
▁status	-3713
▁AS	-3714
scud	-3715
▁jobs	-3716
▁spot	-3717
▁Media	-3718
scudero	-3719
▁network	-3720
▁Opposition	-3721
▁Dela	-3722
▁viral	-3723
▁lower	-3724
▁Korean	-3725
Re	-3726
rer	-3727
▁Pag	-3728
▁choice	-3729
▁Yellowt	-3730
▁extrajudicial	-3731
."	-3732
▁Order	-3733
▁effort	-3734
▁hundred	-3735
▁refused	-3736
▁23	-3737
ambo	-3738
illo	-3739
▁mus	-3740
▁evac	-3741
▁Reyes	-3742
▁Govern	-3743
▁considering	-3744
ingap	-3745
▁pict	-3746
▁accom	-3747
▁termin	-3748
▁mission	-3749
22	-3750
▁CA	-3751
▁Jim	-3752
▁After	-3753
▁large	-3754
▁facing	-3755
▁records	-3756
ND	-3757
isa	-3758
▁nak	-3759
▁amid	-3760
▁cell	-3761
▁Local	-3762
▁training	-3763
hens	-3764
▁lif	-3765
vement	-3766
▁joined	-3767
▁example	-3768
▁promised	-3769
May	-3770
elect	-3771
▁Hill	-3772
▁prec	-3773
▁shabu	-3774
owed	-3775
ports	-3776
ael	-3777
pio	-3778
▁deg	-3779
verty	-3780
astern	-3781
▁economy	-3782
▁herself	-3783
▁poverty	-3784
▁teachers	-3785
▁responsibility	-3786
fo	-3787
sequ	-3788
▁Bay	-3789
▁Jud	-3790
ously	-3791
▁seek	-3792
▁stage	-3793
▁Joseph	-3794
▁Russia	-3795
▁offered	-3796
▁Christmas	-3797
▁ant	-3798
▁likely	-3799
▁institution	-3800
onom	-3801
qual	-3802
arters	-3803
▁valid	-3804
▁wrote	-3805
▁Gordon	-3806
▁document	-3807
▁prepared	-3808
▁specific	-3809
off	-3810
ulu	-3811
ociate	-3812
▁naman	-3813
▁NoyNoy	-3814
▁civili	-3815
▁created	-3816
▁version	-3817
These	-3818
▁gone	-3819
▁amend	-3820
▁avoid	-3821
▁wealth	-3822
▁Million	-3823
oor	-3824
omatic	-3825
▁owners	-3826
▁Pampanga	-3827
itude	-3828
▁race	-3829
▁crown	-3830
▁School	-3831
▁holding	-3832
verage	-3833
▁Affairs	-3834
mbass	-3835
▁bloc	-3836
▁integr	-3837
▁shared	-3838
aly	-3839
enn	-3840
ario	-3841
▁Tag	-3842
▁inn	-3843
▁kidn	-3844
▁Leave	-3845
▁caused	-3846
▁internet	-3847
ami	-3848
ipt	-3849
▁60	-3850
ately	-3851
ource	-3852
▁challenge	-3853
apped	-3854
▁resc	-3855
▁enter	-3856
▁white	-3857
▁mining	-3858
▁granted	-3859
▁village	-3860
All	-3861
pri	-3862
▁above	-3863
▁Security	-3864
▁exchange	-3865
rev	-3866
▁transport	-3867
▁organizations	-3868
iff	-3869
▁Me	-3870
▁estim	-3871
▁season	-3872
▁Foreign	-3873
LE	-3874
▁si	-3875
▁emp	-3876
▁MILF	-3877
▁clar	-3878
▁goods	-3879
ote	-3880
▁Bel	-3881
▁Harry	-3882
▁Drilon	-3883
▁Andanar	-3884
▁Defense	-3885
▁language	-3886
RA	-3887
haps	-3888
▁ito	-3889
▁Moro	-3890
▁offices	-3891
▁submitted	-3892
ena	-3893
ilat	-3894
lines	-3895
▁Peter	-3896
▁remind	-3897
iversary	-3898
secretary	-3899
▁Investigation	-3900
ayed	-3901
▁rum	-3902
▁monitor	-3903
formation	-3904
ente	-3905
reets	-3906
▁huge	-3907
▁sense	-3908
▁bureau	-3909
▁assured	-3910
▁LG	-3911
istered	-3912
ido	-3913
▁je	-3914
▁Kim	-3915
▁rat	-3916
▁coll	-3917
▁resol	-3918
▁fellow	-3919
▁criminals	-3920
▁Communications	-3921
sa	-3922
omar	-3923
owers	-3924
▁game	-3925
▁appointment	-3926
mine	-3927
ledge	-3928
▁constitutional	-3929
▁'	-3930
angg	-3931
iple	-3932
acity	-3933
▁users	-3934
▁tempor	-3935
▁Elections	-3936
▁2,	-3937
ials	-3938
lets	-3939
▁argu	-3940
▁mere	-3941
Robredo	-3942
▁citizen	-3943
▁marriage	-3944
▁violence	-3945
asan	-3946
▁posts	-3947
stitute	-3948
▁appropri	-3949
▁mach	-3950
▁Under	-3951
▁Island	-3952
▁global	-3953
▁launch	-3954
▁doct	-3955
▁goes	-3956
▁planning	-3957
apat	-3958
ball	-3959
▁mas	-3960
▁pal	-3961
▁reti	-3962
▁surv	-3963
ustral	-3964
▁belong	-3965
▁loss	-3966
▁Senators	-3967
▁resources	-3968
▁journalists	-3969
▁performance	-3970
▁liter	-3971
▁replace	-3972
▁weather	-3973
▁detention	-3974
eed	-3975
icol	-3976
just	-3977
▁observ	-3978
▁visited	-3979
▁solution	-3980
▁wage	-3981
ishops	-3982
▁accus	-3983
▁sister	-3984
IT	-3985
icts	-3986
▁article	-3987
▁respondents	-3988
bong	-3989
icle	-3990
ication	-3991
▁promise	-3992
▁weekend	-3993
ilan	-3994
part	-3995
▁Baguio	-3996
▁democracy	-3997
5,	-3998
BP	-3999
▁ba	-4000
▁heads	-4001
▁polls	-4002
▁anyone	-4003
▁events	-4004
ingapore	-4005
▁minutes	-4006
▁signific	-4007
cel	-4008
▁To	-4009
▁wid	-4010
▁exem	-4011
▁street	-4012
▁necessary	-4013
5-	-4014
isis	-4015
▁Get	-4016
▁Hall	-4017
▁firm	-4018
▁Front	-4019
▁orders	-4020
▁reject	-4021
▁confident	-4022
iles	-4023
Let	-4024
ran	-4025
Well	-4026
ancy	-4027
▁ver	-4028
apano	-4029
▁Western	-4030
ha	-4031
BCP	-4032
ban	-4033
des	-4034
ima	-4035
▁Cag	-4036
▁alloc	-4037
▁culture	-4038
11	-4039
▁PO	-4040
essa	-4041
▁resort	-4042
▁existing	-4043
▁facilities	-4044
▁item	-4045
▁title	-4046
▁plunder	-4047
▁talking	-4048
▁towards	-4049
▁journalist	-4050
▁Transportation	-4051
▁hands	-4052
▁celebration	-4053
ILG	-4054
Our	-4055
▁ED	-4056
▁Del	-4057
▁acce	-4058
▁retire	-4059
▁ceremony	-4060
▁IV	-4061
mates	-4062
▁Leyte	-4063
▁image	-4064
▁Carlos	-4065
▁centers	-4066
▁presented	-4067
SWD	-4068
eta	-4069
gar	-4070
ighb	-4071
▁dro	-4072
▁calls	-4073
▁retired	-4074
ST	-4075
asons	-4076
avite	-4077
▁thoughts	-4078
bu	-4079
bon	-4080
law	-4081
▁upd	-4082
loria	-4083
▁Pres	-4084
▁foot	-4085
▁field	-4086
▁mentioned	-4087
▁aim	-4088
▁prior	-4089
orse	-4090
▁Dis	-4091
loilo	-4092
▁Ninoy	-4093
▁housing	-4094
▁regarding	-4095
▁treatment	-4096
▁anniversary	-4097
ergy	-4098
▁Leg	-4099
▁pain	-4100
▁Abella	-4101
▁simple	-4102
▁involving	-4103
▁log	-4104
▁pin	-4105
▁Real	-4106
▁guil	-4107
ulated	-4108
▁condem	-4109
▁standard	-4110
zb	-4111
ula	-4112
▁flag	-4113
▁cross	-4114
▁equip	-4115
▁Service	-4116
▁station	-4117
▁tourism	-4118
ikes	-4119
ander	-4120
iforn	-4121
▁lawyers	-4122
▁student	-4123
▁typhoon	-4124
ware	-4125
▁bab	-4126
engue	-4127
ufact	-4128
▁nine	-4129
▁object	-4130
60	-4131
AP	-4132
stead	-4133
▁pred	-4134
▁contact	-4135
▁streets	-4136
▁Democratic	-4137
noy	-4138
more	-4139
▁Lorenz	-4140
▁Hillary	-4141
▁district	-4142
▁waiting	-4143
pa	-4144
aur	-4145
pon	-4146
▁cru	-4147
estic	-4148
inated	-4149
▁Gloria	-4150
],”	-4151
jomar	-4152
nesty	-4153
▁With	-4154
▁modern	-4155
▁original	-4156
▁starting	-4157
▁Pangilinan	-4158
rol	-4159
oted	-4160
▁OFWs	-4161
▁Super	-4162
▁custom	-4163
▁neighb	-4164
▁concerns	-4165
▁duty	-4166
▁create	-4167
▁pending	-4168
▁critical	-4169
▁character	-4170
▁personally	-4171
ites	-4172
icate	-4173
▁Tagu	-4174
▁broad	-4175
▁civil	-4176
▁occup	-4177
▁attempt	-4178
▁thinking	-4179
500	-4180
ales	-4181
arms	-4182
▁Mad	-4183
urtzb	-4184
▁copy	-4185
apping	-4186
▁houses	-4187
urtzbach	-4188
▁Austral	-4189
▁opinion	-4190
pap	-4191
rem	-4192
utin	-4193
▁bag	-4194
illed	-4195
▁excl	-4196
▁wind	-4197
▁points	-4198
▁search	-4199
▁submit	-4200
▁questioned	-4201
abel	-4202
istic	-4203
▁except	-4204
quarters	-4205
▁decades	-4206
▁wearing	-4207
▁Californ	-4208
▁representative	-4209
▁subs	-4210
▁quite	-4211
▁burial	-4212
▁ongoing	-4213
▁planned	-4214
▁attended	-4215
▁religious	-4216
▁SC	-4217
awai	-4218
anese	-4219
▁PCSO	-4220
▁Iloilo	-4221
▁equipment	-4222
ON	-4223
back	-4224
draw	-4225
yond	-4226
Asked	-4227
▁adop	-4228
▁wait	-4229
▁appre	-4230
amasapano	-4231
▁NA	-4232
iced	-4233
oses	-4234
▁mob	-4235
Trump	-4236
antly	-4237
▁mist	-4238
▁exact	-4239
▁grand	-4240
▁impact	-4241
▁compared	-4242
▁violations	-4243
atu	-4244
▁Aqu	-4245
▁hum	-4246
▁abuse	-4247
▁policies	-4248
down	-4249
▁NBI	-4250
▁fem	-4251
▁Year	-4252
▁Section	-4253
▁finding	-4254
▁recorded	-4255
▁Environment	-4256
70	-4257
Many	-4258
▁unit	-4259
called	-4260
▁relief	-4261
ATED	-4262
▁ten	-4263
▁Alan	-4264
▁Blog	-4265
alition	-4266
▁Malays	-4267
▁headed	-4268
▁actress	-4269
▁failure	-4270
▁complaints	-4271
▁CNN	-4272
▁Now	-4273
▁prim	-4274
orales	-4275
▁advis	-4276
actions	-4277
▁defend	-4278
▁moment	-4279
▁Governor	-4280
ulo	-4281
▁oil	-4282
▁experi	-4283
▁average	-4284
▁conflict	-4285
▁repeated	-4286
yon	-4287
mercial	-4288
▁Agency	-4289
▁quality	-4290
▁supposedly	-4291
cks	-4292
▁2014	-4293
ambling	-4294
▁German	-4295
▁Cagayan	-4296
▁kilomet	-4297
▁numbers	-4298
40	-4299
ches	-4300
▁alone	-4301
▁waste	-4302
▁gather	-4303
▁placed	-4304
uy	-4305
▁mer	-4306
▁Navy	-4307
▁invited	-4308
lig	-4309
lob	-4310
utan	-4311
wood	-4312
ulate	-4313
Marcos	-4314
▁Inday	-4315
▁forum	-4316
▁recru	-4317
▁governor	-4318
REL	-4319
oved	-4320
▁norm	-4321
▁rain	-4322
▁wasn	-4323
▁champ	-4324
▁affect	-4325
▁fisher	-4326
▁Jejomar	-4327
▁determin	-4328
▁Mamasapano	-4329
▁intelligence	-4330
dered	-4331
▁risk	-4332
▁song	-4333
▁places	-4334
▁corrupt	-4335
▁Singapore	-4336
ye	-4337
arks	-4338
cing	-4339
▁dipl	-4340
▁draw	-4341
▁forget	-4342
▁property	-4343
unal	-4344
▁BBL	-4345
▁fel	-4346
▁gradu	-4347
▁suspended	-4348
▁professional	-4349
▁EDSA	-4350
▁Park	-4351
▁secret	-4352
▁immigration	-4353
rile	-4354
▁SAF	-4355
▁Vic	-4356
▁nila	-4357
▁room	-4358
atever	-4359
▁appeared	-4360
▁emergency	-4361
▁opt	-4362
▁judge	-4363
iculture	-4364
unity	-4365
▁forced	-4366
▁stated	-4367
▁English	-4368
▁disqual	-4369
▁reasons	-4370
▁related	-4371
▁Minister	-4372
▁dismissed	-4373
▁increased	-4374
▁cam	-4375
anded	-4376
obato	-4377
▁heavy	-4378
RELATED	-4379
▁Reform	-4380
amboanga	-4381
eth	-4382
upp	-4383
osen	-4384
▁Robles	-4385
idelines	-4386
▁estimated	-4387
▁production	-4388
▁declaration	-4389
▁implemented	-4390
andal	-4391
aredes	-4392
▁corpor	-4393
▁hearings	-4394
▁communist	-4395
His	-4396
▁22	-4397
▁Comp	-4398
▁assess	-4399
cer	-4400
▁Bl	-4401
▁Escudero	-4402
▁Commissioner	-4403
uez	-4404
omen	-4405
▁Coop	-4406
ourism	-4407
▁knows	-4408
▁lands	-4409
▁Leader	-4410
▁decide	-4411
itch	-4412
▁Bulacan	-4413
BN	-4414
imp	-4415
oph	-4416
ograph	-4417
urance	-4418
▁acting	-4419
▁crisis	-4420
▁Napoles	-4421
▁colleag	-4422
▁rid	-4423
eless	-4424
▁phys	-4425
▁Martin	-4426
▁abroad	-4427
▁continues	-4428
Be	-4429
RR	-4430
▁aid	-4431
▁san	-4432
ertain	-4433
▁progress	-4434
▁withdraw	-4435
▁independent	-4436
ta	-4437
EAN	-4438
▁Not	-4439
▁Sil	-4440
▁2017,	-4441
▁Bello	-4442
▁Ramos	-4443
▁probe	-4444
▁allies	-4445
▁growth	-4446
ashington	-4447
▁Wurtzbach	-4448
MC	-4449
aves	-4450
cast	-4451
▁Dec	-4452
▁enem	-4453
▁built	-4454
▁lords	-4455
▁damage	-4456
▁vehicle	-4457
▁minority	-4458
▁movement	-4459
ño	-4460
▁”	-4461
▁send	-4462
▁learn	-4463
▁winning	-4464
▁certific	-4465
▁commander	-4466
▁cooperation	-4467
pay	-4468
angan	-4469
▁natin	-4470
▁Econom	-4471
▁appeal	-4472
▁chosen	-4473
▁California	-4474
▁technology	-4475
onz	-4476
▁Ste	-4477
orrow	-4478
ulong	-4479
▁missing	-4480
▁threats	-4481
▁manufact	-4482
omes	-4483
▁blue	-4484
▁These	-4485
▁owned	-4486
▁effective	-4487
▁representatives	-4488
oto	-4489
▁IS	-4490
▁sad	-4491
▁date	-4492
▁couple	-4493
▁benefici	-4494
▁Southeast	-4495
15	-4496
▁,	-4497
ram	-4498
▁suppl	-4499
▁latter	-4500
▁witnesses	-4501
▁increasing	-4502
TI	-4503
edding	-4504
hensive	-4505
▁covered	-4506
▁wounded	-4507
ev	-4508
uw	-4509
with	-4510
▁consist	-4511
▁partner	-4512
▁capacity	-4513
▁overseas	-4514
▁practice	-4515
aka	-4516
▁Red	-4517
▁prem	-4518
related	-4519
▁Senior	-4520
▁Indones	-4521
▁Washington	-4522
han	-4523
▁26	-4524
▁rise	-4525
▁beyond	-4526
▁mostly	-4527
▁quickly	-4528
▁Sum	-4529
▁Albay	-4530
▁Carpio	-4531
25	-4532
bit	-4533
▁DOJ	-4534
▁memor	-4535
▁located	-4536
▁respective	-4537
▁competition	-4538
noon	-4539
▁battle	-4540
▁license	-4541
Pol	-4542
Spe	-4543
▁knew	-4544
▁lose	-4545
▁speed	-4546
▁testim	-4547
▁controversy	-4548
Not	-4549
oyal	-4550
▁War	-4551
▁execut	-4552
▁Eastern	-4553
▁dictator	-4554
▁determine	-4555
sych	-4556
angas	-4557
ivity	-4558
oking	-4559
▁reit	-4560
▁Cavite	-4561
▁privile	-4562
200	-4563
Ang	-4564
▁UP	-4565
▁ak	-4566
Even	-4567
ibly	-4568
▁Mig	-4569
▁push	-4570
▁towns	-4571
▁nearly	-4572
▁largest	-4573
▁eventually	-4574
tor	-4575
▁Ori	-4576
▁Pad	-4577
▁Rich	-4578
▁dise	-4579
▁spir	-4580
▁enforcement	-4581
Go	-4582
Pro	-4583
▁Some	-4584
▁appl	-4585
▁task	-4586
▁ways	-4587
▁Macap	-4588
▁courts	-4589
▁voting	-4590
▁domestic	-4591
▁recommend	-4592
▁Pen	-4593
▁ven	-4594
▁Phil	-4595
▁subst	-4596
▁accepted	-4597
▁directed	-4598
▁candidacy	-4599
ET	-4600
Here	-4601
fect	-4602
▁How	-4603
▁Magu	-4604
▁Organ	-4605
▁assum	-4606
▁gener	-4607
▁powers	-4608
▁Welfare	-4609
▁opening	-4610
▁squ	-4611
Among	-4612
▁began	-4613
▁amnesty	-4614
▁deliver	-4615
▁section	-4616
▁presence	-4617
▁headquarters	-4618
Is	-4619
tes	-4620
▁CHR	-4621
arcia	-4622
▁opened	-4623
▁reading	-4624
▁municipal	-4625
▁sin	-4626
▁Arch	-4627
▁Land	-4628
▁scheme	-4629
▁relatives	-4630
ua	-4631
amin	-4632
ihood	-4633
▁irre	-4634
▁histor	-4635
▁declare	-4636
▁Santiago	-4637
▁facility	-4638
▁afternoon	-4639
▁Agriculture	-4640
▁involvement	-4641
Ab	-4642
TE	-4643
aeld	-4644
upid	-4645
iling	-4646
▁Mich	-4647
▁Sulu	-4648
▁smugg	-4649
▁though	-4650
▁powerful	-4651
▁commercial	-4652
▁conditions	-4653
TV	-4654
ahat	-4655
▁que	-4656
uties	-4657
ifying	-4658
▁confirm	-4659
▁gambling	-4660
▁receiving	-4661
alls	-4662
alse	-4663
mented	-4664
▁Hawai	-4665
▁extra	-4666
▁closed	-4667
▁Matobato	-4668
▁Netizens	-4669
▁followers	-4670
iw	-4671
abi	-4672
aza	-4673
Just	-4674
esto	-4675
long	-4676
▁Luis	-4677
▁plat	-4678
agalog	-4679
80	-4680
know	-4681
andum	-4682
▁slow	-4683
▁System	-4684
▁drivers	-4685
▁Provincial	-4686
▁registered	-4687
▁prosecution	-4688
45	-4689
▁Neg	-4690
▁nor	-4691
▁tas	-4692
▁Brit	-4693
▁Ressa	-4694
▁newly	-4695
▁climate	-4696
▁firearms	-4697
▁published	-4698
▁id	-4699
fire	-4700
▁NFA	-4701
▁fle	-4702
▁Fund	-4703
▁kept	-4704
▁tick	-4705
▁wish	-4706
▁conte	-4707
▁defin	-4708
▁massive	-4709
Trillanes	-4710
▁investigate	-4711
REA	-4712
elo	-4713
▁Bac	-4714
▁Inf	-4715
▁draft	-4716
▁fully	-4717
▁legit	-4718
▁indeed	-4719
▁Pacific	-4720
▁probably	-4721
▁terrorism	-4722
▁revolution	-4723
▁threatened	-4724
SC	-4725
endo	-4726
▁owner	-4727
▁raise	-4728
▁winner	-4729
▁promote	-4730
▁knowledge	-4731
Also	-4732
rodu	-4733
▁Maj	-4734
▁cast	-4735
▁color	-4736
▁juris	-4737
▁shown	-4738
▁works	-4739
estival	-4740
▁altern	-4741
▁remained	-4742
▁Macapagal	-4743
isf	-4744
yle	-4745
utions	-4746
▁helped	-4747
▁purchase	-4748
▁Conference	-4749
▁previously	-4750
▁environmental	-4751
);	-4752
iece	-4753
acted	-4754
itors	-4755
▁kasi	-4756
▁inaug	-4757
▁deploy	-4758
▁written	-4759
▁challeng	-4760
set	-4761
comm	-4762
unte	-4763
▁Cat	-4764
▁Why	-4765
▁Code	-4766
▁easy	-4767
▁jeep	-4768
▁count	-4769
▁Vicente	-4770
▁stressed	-4771
▁Sam	-4772
abato	-4773
▁guilty	-4774
▁worked	-4775
▁restaur	-4776
▁audience	-4777
Rep	-4778
▁ID	-4779
ahil	-4780
omin	-4781
▁Nov	-4782
▁tag	-4783
anging	-4784
ilibid	-4785
▁spent	-4786
▁lawmaker	-4787
▁Yellowtards	-4788
MP	-4789
enda	-4790
oring	-4791
▁exec	-4792
aeldon	-4793
▁perpet	-4794
▁hundreds	-4795
My	-4796
▁cy	-4797
▁tur	-4798
▁Pant	-4799
▁dela	-4800
▁fired	-4801
▁arrived	-4802
▁directly	-4803
jo	-4804
fri	-4805
alian	-4806
▁Inte	-4807
▁impl	-4808
lihood	-4809
▁rains	-4810
▁changes	-4811
▁beneficiaries	-4812
ww	-4813
▁ign	-4814
▁Bank	-4815
▁sites	-4816
▁purpose	-4817
▁although	-4818
▁includes	-4819
▁speaking	-4820
▁Maguindanao	-4821
term	-4822
▁Cot	-4823
▁obv	-4824
Since	-4825
ademy	-4826
ipped	-4827
▁bail	-4828
▁earn	-4829
▁achieve	-4830
▁informed	-4831
▁kilometers	-4832
▁Af	-4833
enez	-4834
iring	-4835
▁kayo	-4836
▁Offic	-4837
▁Techn	-4838
▁seeks	-4839
▁female	-4840
▁resulted	-4841
▁positions	-4842
-1/	-4843
iñas	-4844
▁Tal	-4845
asion	-4846
▁Lady	-4847
▁felt	-4848
▁weap	-4849
▁Lanao	-4850
▁demon	-4851
▁restr	-4852
▁spoke	-4853
▁judges	-4854
▁resignation	-4855
arer	-4856
orry	-4857
resh	-4858
▁mak	-4859
▁ended	-4860
▁track	-4861
Earlier	-4862
ounting	-4863
▁energy	-4864
▁welcom	-4865
▁wedding	-4866
▁Japanese	-4867
▁apparently	-4868
12	-4869
▁ABS	-4870
▁Even	-4871
▁Blogger	-4872
▁minimum	-4873
versation	-4874
▁Oriental	-4875
po	-4876
axia	-4877
▁Sol	-4878
▁suc	-4879
▁2017.	-4880
▁citing	-4881
▁Paredes	-4882
abilities	-4883
hilippine	-4884
▁commitment	-4885
has	-4886
▁acqu	-4887
▁acts	-4888
acting	-4889
▁Corpor	-4890
▁conven	-4891
▁motorcy	-4892
▁remarks	-4893
▁disaster	-4894
▁remaining	-4895
acing	-4896
▁ahead	-4897
▁aside	-4898
▁approach	-4899
uer	-4900
umn	-4901
▁29	-4902
▁GO	-4903
▁Ra	-4904
▁Sm	-4905
▁et	-4906
More	-4907
engv	-4908
fort	-4909
ataan	-4910
▁2013	-4911
▁drive	-4912
▁Enrile	-4913
▁duties	-4914
engvaxia	-4915
▁Bilibid	-4916
Pac	-4917
rez	-4918
▁Fl	-4919
aret	-4920
iang	-4921
▁Osc	-4922
uters	-4923
▁explos	-4924
▁meetings	-4925
▁providing	-4926
AS	-4927
idge	-4928
▁vig	-4929
▁integrity	-4930
▁Undersecretary	-4931
oman	-4932
▁gas	-4933
ented	-4934
▁rich	-4935
ourdes	-4936
▁rating	-4937
ilateral	-4938
▁activity	-4939
▁electric	-4940
▁completed	-4941
▁temporary	-4942
Man	-4943
▁Tan	-4944
▁Oper	-4945
▁pers	-4946
▁succeed	-4947
▁exercise	-4948
▁dangerous	-4949
▁administrative	-4950
Us	-4951
”,	-4952
sean	-4953
wait	-4954
ocked	-4955
▁DENR	-4956
▁River	-4957
▁train	-4958
▁Doming	-4959
▁afford	-4960
▁Lourdes	-4961
▁registr	-4962
▁whatever	-4963
▁44	-4964
itan	-4965
rael	-4966
▁197	-4967
▁Sub	-4968
▁shut	-4969
icious	-4970
▁Power	-4971
▁items	-4972
▁bigger	-4973
▁waters	-4974
▁sustain	-4975
▁resident	-4976
Cor	-4977
NPA	-4978
▁3,	-4979
rupt	-4980
error	-4981
▁card	-4982
▁refer	-4983
▁punish	-4984
▁Tourism	-4985
▁growing	-4986
▁reality	-4987
▁ordinary	-4988
▁standing	-4989
usan	-4990
▁sea	-4991
▁Mass	-4992
lywood	-4993
▁worst	-4994
▁actual	-4995
▁details	-4996
▁stories	-4997
▁responded	-4998
tees	-4999
▁Mind	-5000
▁sens	-5001
▁coast	-5002
▁takes	-5003
▁affairs	-5004
▁coordin	-5005
▁justices	-5006
▁surrender	-5007
▁officially	-5008
Of	-5009
Filip	-5010
▁looks	-5011
▁addition	-5012
▁platform	-5013
▁electoral	-5014
bre	-5015
▁Ec	-5016
▁GMA	-5017
▁obt	-5018
▁pul	-5019
▁1987	-5020
▁King	-5021
▁siya	-5022
ivered	-5023
▁earth	-5024
▁Villar	-5025
▁Associate	-5026
▁inflation	-5027
▁operating	-5028
19	-5029
lan	-5030
▁inmates	-5031
17	-5032
CBN	-5033
aped	-5034
▁Gov	-5035
▁sout	-5036
▁movie	-5037
utation	-5038
▁secure	-5039
▁Economic	-5040
▁Ku	-5041
▁Gal	-5042
▁Imm	-5043
▁star	-5044
antage	-5045
▁entry	-5046
▁vowed	-5047
▁newspap	-5048
▁citizenship	-5049
▁contractual	-5050
IES	-5051
ica	-5052
ora	-5053
▁ma	-5054
ahan	-5055
ables	-5056
ashed	-5057
essed	-5058
▁limit	-5059
▁assets	-5060
▁famous	-5061
▁removed	-5062
▁employers	-5063
▁employment	-5064
▁established	-5065
▁Frank	-5066
usiness	-5067
▁inspect	-5068
▁Cotabato	-5069
CA	-5070
Dep	-5071
acio	-5072
▁Many	-5073
▁Salv	-5074
▁anim	-5075
▁rein	-5076
▁truly	-5077
▁Batangas	-5078
▁Northern	-5079
▁Christian	-5080
▁supported	-5081
▁ep	-5082
berg	-5083
rees	-5084
▁dog	-5085
▁East	-5086
▁Street	-5087
▁choose	-5088
▁However	-5089
▁serving	-5090
▁tourists	-5091
▁Dengvaxia	-5092
▁Resources	-5093
▁appropriate	-5094
▁Ins	-5095
▁via	-5096
▁Cons	-5097
▁voice	-5098
▁plastic	-5099
▁Lorenzana	-5100
▁requirements	-5101
▁establishments	-5102
▁Hot	-5103
▁faced	-5104
▁hopes	-5105
uration	-5106
▁acknow	-5107
▁deputy	-5108
▁classes	-5109
▁provides	-5110
▁partnership	-5111
▁Ev	-5112
▁pati	-5113
▁solve	-5114
▁research	-5115
▁Employment	-5116
▁27	-5117
free	-5118
igao	-5119
bishop	-5120
▁Crame	-5121
▁stake	-5122
▁associ	-5123
▁boxing	-5124
▁levels	-5125
▁delivered	-5126
▁extension	-5127
▁livelihood	-5128
▁distribution	-5129
gry	-5130
▁2.	-5131
dress	-5132
luded	-5133
▁2019	-5134
▁band	-5135
▁fees	-5136
ilding	-5137
▁doubt	-5138
Senator	-5139
▁border	-5140
▁summit	-5141
▁leaving	-5142
▁monthly	-5143
▁positive	-5144
bing	-5145
iber	-5146
▁STOR	-5147
igaret	-5148
▁Sison	-5149
▁While	-5150
▁actor	-5151
▁Filipina	-5152
▁businesses	-5153
▁negotiations	-5154
Ex	-5155
UC	-5156
unch	-5157
▁Tai	-5158
cript	-5159
icken	-5160
▁pret	-5161
▁raid	-5162
▁depend	-5163
Speaking	-5164
▁governance	-5165
35	-5166
▁PR	-5167
gers	-5168
will	-5169
Laban	-5170
▁path	-5171
▁extend	-5172
▁welcome	-5173
▁defended	-5174
▁Hollywood	-5175
run	-5176
Other	-5177
▁diss	-5178
▁synd	-5179
▁smart	-5180
▁Garcia	-5181
▁jurisd	-5182
▁master	-5183
▁intended	-5184
▁materials	-5185
hood	-5186
▁Pia	-5187
▁Char	-5188
idental	-5189
▁Barack	-5190
▁hoping	-5191
▁salary	-5192
▁Morales	-5193
▁civilians	-5194
▁possibility	-5195
LC	-5196
dy	-5197
aken	-5198
char	-5199
cked	-5200
▁Mel	-5201
▁carry	-5202
Despite	-5203
igrants	-5204
▁wonder	-5205
▁conserv	-5206
▁introdu	-5207
▁vaccine	-5208
▁generation	-5209
Mal	-5210
ivil	-5211
▁arg	-5212
▁fan	-5213
▁feed	-5214
▁Trial	-5215
▁cease	-5216
da	-5217
abe	-5218
▁cat	-5219
▁Alex	-5220
▁dream	-5221
▁lahat	-5222
▁Israel	-5223
▁Miguel	-5224
▁warning	-5225
uet	-5226
▁PA	-5227
ults	-5228
▁Tac	-5229
▁innoc	-5230
▁encoun	-5231
▁Russian	-5232
▁happens	-5233
▁remember	-5234
WH	-5235
lls	-5236
gent	-5237
mits	-5238
▁max	-5239
▁sab	-5240
▁renew	-5241
▁perman	-5242
▁strict	-5243
▁Finance	-5244
▁usually	-5245
▁victory	-5246
▁colleagues	-5247
dom	-5248
/2014	-5249
▁Fern	-5250
▁emot	-5251
▁homes	-5252
itarian	-5253
▁propag	-5254
▁quarter	-5255
▁household	-5256
▁prosecutors	-5257
mark	-5258
▁Ern	-5259
ategy	-5260
▁mate	-5261
▁Found	-5262
▁music	-5263
▁depart	-5264
▁reminded	-5265
▁beginning	-5266
▁technical	-5267
DAF	-5268
▁28	-5269
leep	-5270
▁MRT	-5271
▁lies	-5272
▁male	-5273
▁meth	-5274
▁niya	-5275
▁false	-5276
▁Deputy	-5277
▁becoming	-5278
▁claiming	-5279
▁qualified	-5280
▁CEO	-5281
▁doll	-5282
▁ASEAN	-5283
▁easily	-5284
▁thanks	-5285
▁carrying	-5286
▁priority	-5287
▁influence	-5288
idav	-5289
▁Port	-5290
▁aims	-5291
▁eyes	-5292
raight	-5293
▁Memor	-5294
▁proof	-5295
▁skills	-5296
▁Officer	-5297
▁opposed	-5298
▁picture	-5299
forcement	-5300
18	-5301
TF	-5302
uz	-5303
COO	-5304
▁90	-5305
▁Mc	-5306
iable	-5307
▁hate	-5308
▁apply	-5309
▁boxer	-5310
▁worse	-5311
▁Former	-5312
▁extort	-5313
▁middle	-5314
▁becomes	-5315
▁European	-5316
▁assigned	-5317
▁coverage	-5318
▁collection	-5319
▁investment	-5320
▁born	-5321
▁save	-5322
▁Laguna	-5323
▁agenda	-5324
▁nomine	-5325
▁Revilla	-5326
▁minister	-5327
▁successful	-5328
RB	-5329
▁RA	-5330
iman	-5331
iyan	-5332
room	-5333
▁cab	-5334
Aside	-5335
▁Rody	-5336
▁coff	-5337
endoza	-5338
olanda	-5339
ception	-5340
▁Canada	-5341
▁flight	-5342
▁stupid	-5343
▁accompl	-5344
▁favorite	-5345
▁attending	-5346
READ	-5347
hang	-5348
azine	-5349
works	-5350
▁brib	-5351
Arroyo	-5352
▁troub	-5353
▁formal	-5354
▁STORIES	-5355
▁institutions	-5356
mbly	-5357
anche	-5358
ilang	-5359
itory	-5360
rency	-5361
▁fuel	-5362
▁fraud	-5363
▁maybe	-5364
▁Tagalog	-5365
ortunately	-5366
).“	-5367
egas	-5368
iñol	-5369
▁Occ	-5370
▁Rol	-5371
hered	-5372
▁Cont	-5373
▁Sept	-5374
▁outr	-5375
vision	-5376
▁Negros	-5377
▁closure	-5378
▁assistant	-5379
▁Liberation	-5380
▁Corporation	-5381
ING	-5382
iko	-5383
wed	-5384
dden	-5385
▁eth	-5386
▁fre	-5387
uting	-5388
▁Reyn	-5389
▁fine	-5390
▁normal	-5391
▁experts	-5392
▁revenue	-5393
▁Foundation	-5394
▁challenged	-5395
▁provisions	-5396
▁surrendered	-5397
BT	-5398
IM	-5399
ef	-5400
aman	-5401
raid	-5402
▁BOC	-5403
aying	-5404
odies	-5405
▁PDEA	-5406
▁none	-5407
friend	-5408
▁boost	-5409
▁extreme	-5410
▁extended	-5411
▁standards	-5412
▁legislation	-5413
Tw	-5414
gn	-5415
ox	-5416
▁Bern	-5417
▁drop	-5418
▁hect	-5419
▁surr	-5420
▁virt	-5421
▁Vegas	-5422
▁Nation	-5423
▁Richard	-5424
▁reforms	-5425
▁division	-5426
En	-5427
How	-5428
oma	-5429
▁SM	-5430
plan	-5431
▁CPP	-5432
▁rape	-5433
▁dahil	-5434
ression	-5435
▁linked	-5436
▁paying	-5437
▁spirit	-5438
▁Ernesto	-5439
▁constit	-5440
▁Services	-5441
▁senatorial	-5442
▁personalities	-5443
ien	-5444
sex	-5445
ague	-5446
lear	-5447
▁fix	-5448
ibbon	-5449
▁pick	-5450
▁Award	-5451
▁south	-5452
standing	-5453
▁declined	-5454
▁pressure	-5455
▁disclosed	-5456
▁traditional	-5457
▁jurisdiction	-5458
ows	-5459
▁80	-5460
▁ib	-5461
urer	-5462
▁scr	-5463
▁sem	-5464
▁Food	-5465
▁oath	-5466
▁Dayan	-5467
▁behav	-5468
▁proced	-5469
▁produc	-5470
▁Angeles	-5471
▁consequ	-5472
▁interests	-5473
▁proceedings	-5474
▁af	-5475
onso	-5476
▁gar	-5477
▁pra	-5478
▁rob	-5479
▁Geor	-5480
▁Paolo	-5481
▁circum	-5482
▁recruit	-5483
▁legislative	-5484
14	-5485
],	-5486
Con	-5487
▁AM	-5488
▁TO	-5489
▁Are	-5490
▁Est	-5491
▁DILG	-5492
▁Risa	-5493
ferences	-5494
▁advised	-5495
▁carried	-5496
▁contain	-5497
▁manager	-5498
▁conducting	-5499
▁reiterated	-5500
SP	-5501
att	-5502
asco	-5503
jerc	-5504
▁Rub	-5505
onsid	-5506
▁Page	-5507
▁Nueva	-5508
▁Press	-5509
▁dated	-5510
jercito	-5511
▁sexual	-5512
ications	-5513
▁Michael	-5514
▁passage	-5515
▁Bongbong	-5516
Why	-5517
pan	-5518
ietn	-5519
that	-5520
andez	-5521
▁DSWD	-5522
▁wear	-5523
orough	-5524
▁Ramon	-5525
▁spend	-5526
▁engine	-5527
▁Academy	-5528
▁helping	-5529
▁pension	-5530
▁Salvador	-5531
▁application	-5532
ded	-5533
acco	-5534
▁eye	-5535
andon	-5536
iation	-5537
▁aimed	-5538
▁strateg	-5539
▁discussed	-5540
▁reporting	-5541
aldo	-5542
ayon	-5543
▁Edu	-5544
▁Roa	-5545
▁bit	-5546
itely	-5547
secut	-5548
▁visa	-5549
▁David	-5550
▁attemp	-5551
▁presum	-5552
▁seeing	-5553
▁seized	-5554
ological	-5555
▁Mindoro	-5556
▁Surigao	-5557
▁Chairman	-5558
▁convicted	-5559
▁transportation	-5560
.(	-5561
Sh	-5562
oso	-5563
roc	-5564
ocan	-5565
ivery	-5566
uries	-5567
stream	-5568
▁Prime	-5569
▁depos	-5570
▁agents	-5571
▁dengue	-5572
arangays	-5573
▁reporter	-5574
rep	-5575
see	-5576
izes	-5577
▁Nav	-5578
▁sun	-5579
▁swe	-5580
ailed	-5581
▁Will	-5582
▁thus	-5583
▁deleg	-5584
▁ruled	-5585
▁Pangas	-5586
▁strategy	-5587
▁Occidental	-5588
▁maintained	-5589
▁Enforcement	-5590
▁0	-5591
Bong	-5592
drug	-5593
oked	-5594
house	-5595
▁unif	-5596
▁surve	-5597
▁endorse	-5598
ola	-5599
▁My	-5600
From	-5601
▁Vel	-5602
▁pros	-5603
atican	-5604
Comelec	-5605
▁adjust	-5606
▁Padilla	-5607
▁ratings	-5608
▁Hospital	-5609
▁prompted	-5610
▁accusations	-5611
▁participate	-5612
iege	-5613
▁kay	-5614
▁imag	-5615
▁Bicol	-5616
▁plane	-5617
▁married	-5618
▁negative	-5619
inct	-5620
owned	-5621
unist	-5622
▁gets	-5623
▁incl	-5624
▁sila	-5625
▁stopped	-5626
▁violated	-5627
▁addressed	-5628
▁customers	-5629
▁exclusive	-5630
▁monitoring	-5631
la	-5632
Poe	-5633
got	-5634
lyn	-5635
uba	-5636
▁Gl	-5637
▁arm	-5638
▁awa	-5639
▁enh	-5640
▁etc	-5641
▁base	-5642
▁seat	-5643
▁sett	-5644
▁moved	-5645
▁roads	-5646
▁pursue	-5647
▁sudden	-5648
▁appears	-5649
13	-5650
ols	-5651
sin	-5652
vis	-5653
▁Ak	-5654
▁ir	-5655
▁DOH	-5656
▁INC	-5657
▁fat	-5658
▁pic	-5659
▁yan	-5660
ammed	-5661
ingan	-5662
▁DepEd	-5663
▁Elect	-5664
▁Vietn	-5665
▁giant	-5666
▁Kuwait	-5667
▁career	-5668
▁Vatican	-5669
▁college	-5670
▁counsel	-5671
▁worldwide	-5672
▁Pangasinan	-5673
▁federalism	-5674
▁popularity	-5675
Presidential	-5676
▁alternative	-5677
▁businessman	-5678
hay	-5679
▁70	-5680
eals	-5681
ried	-5682
aleon	-5683
▁defe	-5684
▁plot	-5685
▁sale	-5686
▁isang	-5687
▁paper	-5688
aloocan	-5689
▁Avenue	-5690
▁central	-5691
▁payment	-5692
▁insisted	-5693
ann	-5694
▁combat	-5695
▁figure	-5696
▁proven	-5697
▁connect	-5698
atchalian	-5699
▁constitution	-5700
try	-5701
ura	-5702
▁ND	-5703
▁Vict	-5704
▁arch	-5705
▁pang	-5706
▁weak	-5707
inally	-5708
▁guard	-5709
imately	-5710
▁repeatedly	-5711
90	-5712
DB	-5713
oo	-5714
MEL	-5715
eno	-5716
▁5,	-5717
iest	-5718
▁Arab	-5719
▁2015,	-5720
▁Oscar	-5721
▁aware	-5722
▁entit	-5723
▁storm	-5724
▁Branch	-5725
▁Hawaii	-5726
▁expert	-5727
▁merely	-5728
▁reduce	-5729
▁changed	-5730
▁mandate	-5731
▁offense	-5732
▁regions	-5733
▁Southern	-5734
▁delivery	-5735
▁returned	-5736
▁southern	-5737
▁congressional	-5738
icy	-5739
ket	-5740
alan	-5741
ruption	-5742
urement	-5743
▁Taiwan	-5744
▁highly	-5745
▁Appeals	-5746
▁clearly	-5747
▁Pantaleon	-5748
▁significant	-5749
Ad	-5750
US	-5751
Com	-5752
ews	-5753
alde	-5754
fill	-5755
ique	-5756
▁Sab	-5757
asted	-5758
enous	-5759
loban	-5760
▁ends	-5761
Police	-5762
▁bills	-5763
▁loyal	-5764
▁thank	-5765
▁Action	-5766
▁Faeldon	-5767
▁concert	-5768
▁grounds	-5769
▁imposed	-5770
▁recalled	-5771
ster	-5772
▁Over	-5773
▁shel	-5774
▁wide	-5775
coming	-5776
▁alive	-5777
▁categ	-5778
▁chose	-5779
▁intens	-5780
▁satisf	-5781
▁Bishops	-5782
▁composed	-5783
▁intention	-5784
▁recovered	-5785
▁requested	-5786
▁suffering	-5787
].	-5788
Pag	-5789
ole	-5790
inks	-5791
▁COA	-5792
▁Don	-5793
▁SSS	-5794
▁ess	-5795
icide	-5796
nergy	-5797
▁beat	-5798
▁Coast	-5799
▁Samar	-5800
▁siege	-5801
▁active	-5802
amarines	-5803
▁funding	-5804
▁tourist	-5805
▁volunte	-5806
▁continuing	-5807
:30	-5808
chol	-5809
▁Jer	-5810
▁plus	-5811
▁wala	-5812
atched	-5813
▁Again	-5814
weather	-5815
▁abuses	-5816
▁afraid	-5817
▁custody	-5818
▁telling	-5819
▁welfare	-5820
▁fishermen	-5821
▁tradition	-5822
▁discovered	-5823
▁guidelines	-5824
▁retirement	-5825
▁agriculture	-5826
MB	-5827
OT	-5828
UP	-5829
Net	-5830
col	-5831
anks	-5832
▁Ser	-5833
▁tot	-5834
amily	-5835
▁Mary	-5836
▁airc	-5837
▁heav	-5838
▁tayo	-5839
▁indig	-5840
▁psych	-5841
▁priest	-5842
▁remove	-5843
▁patients	-5844
▁welcomed	-5845
▁clarified	-5846
▁therefore	-5847
▁violating	-5848
▁designated	-5849
enza	-5850
▁Har	-5851
▁wake	-5852
▁Vital	-5853
▁Bayani	-5854
▁scient	-5855
▁evening	-5856
▁perfect	-5857
▁systems	-5858
▁Franklin	-5859
▁consumers	-5860
▁Information	-5861
IP	-5862
IV	-5863
bl	-5864
lif	-5865
Sant	-5866
antry	-5867
ushed	-5868
▁flow	-5869
▁gust	-5870
------	-5871
▁lines	-5872
▁views	-5873
Another	-5874
▁taxpay	-5875
▁comfort	-5876
▁exactly	-5877
▁Malaysia	-5878
▁confidence	-5879
▁motorcycle	-5880
▁opportunities	-5881
born	-5882
rugg	-5883
Binay	-5884
anced	-5885
ining	-5886
▁CBCP	-5887
▁Road	-5888
▁brand	-5889
▁transl	-5890
inations	-5891
▁College	-5892
▁Medical	-5893
▁holiday	-5894
▁sectors	-5895
▁gathering	-5896
▁regulations	-5897
75	-5898
By	-5899
agan	-5900
akit	-5901
▁Cas	-5902
▁bes	-5903
▁tat	-5904
aimed	-5905
▁abol	-5906
▁suit	-5907
uition	-5908
▁Clark	-5909
▁Because	-5910
▁entered	-5911
▁limited	-5912
▁produce	-5913
▁signing	-5914
▁messages	-5915
uela	-5916
arlia	-5917
verse	-5918
▁rall	-5919
Americ	-5920
▁fresh	-5921
illegas	-5922
▁credit	-5923
▁learning	-5924
▁operators	-5925
ams	-5926
jano	-5927
▁lie	-5928
▁uns	-5929
aches	-5930
ubiri	-5931
wered	-5932
▁Roman	-5933
▁crack	-5934
▁exist	-5935
▁match	-5936
▁solid	-5937
Because	-5938
iciency	-5939
▁Summit	-5940
▁singer	-5941
▁seriously	-5942
▁governments	-5943
▁Ty	-5944
▁ties	-5945
▁uncon	-5946
▁notice	-5947
▁strugg	-5948
▁videos	-5949
olicitor	-5950
▁engaged	-5951
▁tribunal	-5952
▁Organization	-5953
65	-5954
▁Aud	-5955
▁Cam	-5956
▁Ted	-5957
MELEC	-5958
month	-5959
▁issu	-5960
istics	-5961
▁bidding	-5962
▁islands	-5963
▁Internal	-5964
▁Tacloban	-5965
Her	-5966
acc	-5967
▁Sr	-5968
▁bi	-5969
cell	-5970
anish	-5971
▁Paul	-5972
holders	-5973
▁meters	-5974
▁severe	-5975
▁totally	-5976
▁allowing	-5977
▁visiting	-5978
▁4,	-5979
arra	-5980
▁Art	-5981
▁fit	-5982
▁nga	-5983
isters	-5984
reement	-5985
▁belief	-5986
▁blamed	-5987
▁buried	-5988
▁blogger	-5989
▁cigaret	-5990
▁demonstr	-5991
▁reaction	-5992
▁rejected	-5993
▁difference	-5994
▁transactions	-5995
GO	-5996
iful	-5997
▁bin	-5998
▁eld	-5999
amber	-6000
fight	-6001
▁symb	-6002
anchez	-6003
uclear	-6004
▁Drugs	-6005
▁hotel	-6006
▁Mexico	-6007
▁accord	-6008
arliament	-6009
▁Vitaliano	-6010
▁incidents	-6011
▁organized	-6012
▁invitation	-6013
▁recognized	-6014
▁Immigration	-6015
fl	-6016
oj	-6017
bur	-6018
Senate	-6019
▁Afric	-6020
▁Judge	-6021
▁Angara	-6022
▁Budget	-6023
▁incumb	-6024
▁Pageant	-6025
▁maximum	-6026
▁shooting	-6027
▁registration	-6028
▁investigating	-6029
44	-6030
LP	-6031
OW	-6032
ham	-6033
rog	-6034
inag	-6035
ancing	-6036
person	-6037
▁Grand	-6038
▁regime	-6039
▁Natural	-6040
▁straight	-6041
▁coalition	-6042
▁territory	-6043
▁recommended	-6044
▁implementing	-6045
1-	-6046
LN	-6047
apt	-6048
▁7,	-6049
▁Lo	-6050
acle	-6051
▁dark	-6052
▁model	-6053
▁appoin	-6054
▁bodies	-6055
▁degree	-6056
▁double	-6057
▁losing	-6058
▁disease	-6059
▁injured	-6060
▁resigned	-6061
▁Indonesia	-6062
▁advantage	-6063
▁determined	-6064
▁throughout	-6065
3-	-6066
omas	-6067
▁Our	-6068
gment	-6069
▁sorry	-6070
▁values	-6071
▁reflect	-6072
▁weapons	-6073
▁champion	-6074
▁nomination	-6075
ze	-6076
100	-6077
iyo	-6078
▁STL	-6079
▁unc	-6080
Roque	-6081
▁Apple	-6082
▁north	-6083
▁Command	-6084
▁Caloocan	-6085
▁Camarines	-6086
▁destroyed	-6087
▁surprised	-6088
aine	-6089
then	-6090
▁die	-6091
▁fell	-6092
▁sacr	-6093
anueva	-6094
▁round	-6095
ilitary	-6096
▁branch	-6097
▁palace	-6098
▁rescue	-6099
▁rising	-6100
▁keeping	-6101
▁bringing	-6102
▁30,	-6103
▁gre	-6104
▁tom	-6105
▁Hong	-6106
▁bags	-6107
▁dial	-6108
▁goal	-6109
▁absol	-6110
▁medic	-6111
▁ballot	-6112
▁select	-6113
▁sports	-6114
▁Capital	-6115
▁pushing	-6116
▁resolve	-6117
▁contracts	-6118
IDG	-6119
amat	-6120
▁Mas	-6121
anang	-6122
iwalo	-6123
woman	-6124
▁Holy	-6125
▁Then	-6126
▁kids	-6127
ailing	-6128
▁moving	-6129
▁anymore	-6130
▁writing	-6131
▁privilege	-6132
▁prosecutor	-6133
iel	-6134
ips	-6135
irt	-6136
▁Pul	-6137
anged	-6138
ommod	-6139
ument	-6140
▁Lasc	-6141
▁Task	-6142
▁wall	-6143
▁alias	-6144
▁aspir	-6145
▁endors	-6146
▁nature	-6147
▁Project	-6148
▁focused	-6149
▁silence	-6150
▁deployed	-6151
▁happening	-6152
▁experienced	-6153
▁Representative	-6154
Dav	-6155
vent	-6156
▁Dan	-6157
▁Son	-6158
▁hell	-6159
▁walk	-6160
▁slain	-6161
▁Energy	-6162
▁apprec	-6163
▁fourth	-6164
▁affidav	-6165
▁pushers	-6166
▁acknowled	-6167
▁Assistance	-6168
▁memorandum	-6169
▁du	-6170
▁PDP	-6171
▁ped	-6172
Based	-6173
Chief	-6174
▁Edsa	-6175
▁Class	-6176
▁Crist	-6177
▁audit	-6178
▁calam	-6179
▁forms	-6180
▁pride	-6181
▁throw	-6182
▁Prison	-6183
▁creation	-6184
ipe	-6185
onym	-6186
▁Bag	-6187
▁Mab	-6188
▁pil	-6189
ients	-6190
itime	-6191
▁Work	-6192
▁luck	-6193
▁pron	-6194
mbassy	-6195
▁Civil	-6196
▁Water	-6197
▁store	-6198
▁style	-6199
▁mobile	-6200
▁Address	-6201
▁Mendoza	-6202
▁legitimate	-6203
aked	-6204
▁Bam	-6205
▁Far	-6206
▁Oro	-6207
▁rail	-6208
abayan	-6209
▁Peace	-6210
▁moral	-6211
▁piece	-6212
▁scene	-6213
▁academ	-6214
▁unless	-6215
▁Eduardo	-6216
▁absence	-6217
▁perhaps	-6218
▁primary	-6219
▁peaceful	-6220
▁replaced	-6221
▁Archbishop	-6222
▁agricultural	-6223
2-	-6224
OU	-6225
PWH	-6226
filo	-6227
▁tim	-6228
known	-6229
lease	-6230
50,000	-6231
arbage	-6232
▁rates	-6233
▁table	-6234
▁Colomb	-6235
▁Revenue	-6236
▁effects	-6237
▁scandal	-6238
▁accommod	-6239
▁birthday	-6240
▁multiple	-6241
▁Australia	-6242
▁smuggling	-6243
▁suggested	-6244
▁understanding	-6245
bab	-6246
iño	-6247
orr	-6248
deed	-6249
▁Jul	-6250
▁Luc	-6251
▁Rec	-6252
ilino	-6253
urred	-6254
▁dire	-6255
▁magn	-6256
▁Asean	-6257
▁grave	-6258
▁proud	-6259
onomous	-6260
▁harass	-6261
▁Embassy	-6262
▁putting	-6263
▁treated	-6264
▁Infantry	-6265
▁hectares	-6266
▁protests	-6267
▁entertain	-6268
▁supporting	-6269
▁recognition	-6270
onna	-6271
uneta	-6272
▁iron	-6273
▁James	-6274
▁rebel	-6275
ropical	-6276
▁mayors	-6277
▁ribbon	-6278
▁Spanish	-6279
▁Station	-6280
▁Criminal	-6281
▁Pilipino	-6282
▁Communist	-6283
▁displaced	-6284
▁recognize	-6285
95	-6286
Pe	-6287
bal	-6288
▁AL	-6289
▁Lt	-6290
acre	-6291
aint	-6292
lims	-6293
outs	-6294
ouses	-6295
iminate	-6296
▁updates	-6297
▁Aquilino	-6298
▁maintain	-6299
▁spending	-6300
▁testimony	-6301
▁propaganda	-6302
▁congressman	-6303
BA	-6304
Sec	-6305
iors	-6306
ulfo	-6307
▁Good	-6308
▁LGBT	-6309
▁brok	-6310
▁zero	-6311
▁Janet	-6312
▁veter	-6313
/2014/0	-6314
▁advice	-6315
▁quoted	-6316
▁matters	-6317
▁Industry	-6318
▁newspaper	-6319
▁protecting	-6320
AFP	-6321
ija	-6322
osa	-6323
▁6,	-6324
▁Sa	-6325
ples	-6326
▁jun	-6327
▁Palawan	-6328
▁industr	-6329
▁Libingan	-6330
▁evacuation	-6331
▁certificate	-6332
24	-6333
TO	-6334
▁35	-6335
▁Jun	-6336
overy	-6337
▁impr	-6338
▁note	-6339
▁roll	-6340
ounted	-6341
▁mouth	-6342
▁finish	-6343
▁undert	-6344
▁Panfilo	-6345
▁answered	-6346
▁expenses	-6347
▁judicial	-6348
DS	-6349
▁Ja	-6350
anim	-6351
arda	-6352
fall	-6353
▁ded	-6354
▁lum	-6355
▁bott	-6356
ructed	-6357
▁rival	-6358
▁stood	-6359
▁teach	-6360
lamation	-6361
▁Reynaldo	-6362
Philippine	-6363
▁incumbent	-6364
audi	-6365
▁VID	-6366
▁cry	-6367
agers	-6368
iriam	-6369
▁Cory	-6370
▁gain	-6371
▁narr	-6372
▁taxi	-6373
▁looked	-6374
▁prefer	-6375
▁deadline	-6376
▁issuance	-6377
▁everybody	-6378
!!	-6379
itt	-6380
onn	-6381
prof	-6382
▁kany	-6383
▁comply	-6384
▁prelim	-6385
▁rebell	-6386
▁Rolando	-6387
▁fishing	-6388
▁pronoun	-6389
▁tuition	-6390
▁territor	-6391
▁Agreement	-6392
▁encourage	-6393
▁reputation	-6394
▁transferred	-6395
ecto	-6396
▁Exp	-6397
▁Fel	-6398
tienza	-6399
▁VIDEO	-6400
▁block	-6401
▁selling	-6402
▁employee	-6403
▁fighters	-6404
▁publicly	-6405
▁surprise	-6406
▁Malacanang	-6407
▁Operations	-6408
▁effectively	-6409
38	-6410
Any	-6411
ils	-6412
apan	-6413
▁Alf	-6414
▁BIR	-6415
▁Mid	-6416
▁beg	-6417
iones	-6418
rence	-6419
▁Well	-6420
▁pled	-6421
everal	-6422
uction	-6423
▁Ecija	-6424
▁shift	-6425
▁toler	-6426
▁cancer	-6427
▁guaran	-6428
▁reserv	-6429
▁investigated	-6430
36	-6431
Sp	-6432
ey	-6433
ete	-6434
apid	-6435
▁cul	-6436
▁daw	-6437
essel	-6438
▁lady	-6439
▁broke	-6440
▁sound	-6441
▁Panelo	-6442
▁Freedom	-6443
▁chicken	-6444
▁flights	-6445
▁nuclear	-6446
▁readers	-6447
mbassador	-6448
▁magazine	-6449
▁ceasefire	-6450
▁encounter	-6451
▁conversation	-6452
cor	-6453
Most	-6454
▁hur	-6455
alang	-6456
opher	-6457
▁Kong	-6458
▁gold	-6459
▁gown	-6460
▁beaut	-6461
▁blame	-6462
▁faces	-6463
▁green	-6464
▁earned	-6465
▁gunmen	-6466
▁talked	-6467
▁enemies	-6468
▁appealed	-6469
▁northern	-6470
▁activists	-6471
▁automatic	-6472
inl	-6473
▁Ann	-6474
▁Sar	-6475
▁lov	-6476
▁ult	-6477
▁Flor	-6478
▁Joel	-6479
▁NAIA	-6480
▁hurt	-6481
▁loan	-6482
▁scen	-6483
▁firms	-6484
▁Calida	-6485
▁mental	-6486
▁vessel	-6487
▁discipl	-6488
▁soldier	-6489
▁reconsid	-6490
▁supporter	-6491
▁assessment	-6492
4-	-6493
WS	-6494
▁EU	-6495
▁Up	-6496
azar	-6497
▁kan	-6498
▁dito	-6499
▁kaya	-6500
onents	-6501
ported	-6502
vention	-6503
▁Valley	-6504
▁forest	-6505
▁nearby	-6506
▁Ejercito	-6507
▁buildings	-6508
▁processing	-6509
FF	-6510
vin	-6511
▁Ms	-6512
roll	-6513
ijing	-6514
rench	-6515
ubbed	-6516
▁Hern	-6517
▁baby	-6518
▁zone	-6519
▁Guard	-6520
▁incom	-6521
▁prime	-6522
▁venue	-6523
ulatory	-6524
▁Lagman	-6525
▁slammed	-6526
▁identity	-6527
▁suffered	-6528
▁challenges	-6529
ika	-6530
Both	-6531
mali	-6532
▁Año	-6533
▁1,000	-6534
▁Piñol	-6535
▁costs	-6536
▁resum	-6537
▁sleep	-6538
▁space	-6539
tenance	-6540
▁Manuel	-6541
▁dinner	-6542
▁emphas	-6543
▁prompt	-6544
▁unlike	-6545
▁identify	-6546
▁innocent	-6547
▁bilateral	-6548
▁otherwise	-6549
▁initiative	-6550
PI	-6551
▁6.	-6552
neys	-6553
orms	-6554
resp	-6555
▁500	-6556
▁Ker	-6557
▁Mis	-6558
▁Ter	-6559
▁der	-6560
▁dig	-6561
▁tob	-6562
ament	-6563
arcot	-6564
▁Rome	-6565
▁dign	-6566
ground	-6567
ousing	-6568
▁facts	-6569
▁games	-6570
essions	-6571
urisima	-6572
▁please	-6573
▁dropped	-6574
▁tobacco	-6575
▁Thinking	-6576
▁requires	-6577
▁shipment	-6578
añas	-6579
rene	-6580
echan	-6581
obody	-6582
story	-6583
▁Most	-6584
▁ride	-6585
▁sick	-6586
ashion	-6587
▁brain	-6588
▁Online	-6589
▁argued	-6590
▁subsid	-6591
▁Vietnam	-6592
▁univers	-6593
▁younger	-6594
▁rebellion	-6595
▁criticisms	-6596
JK	-6597
ese	-6598
tra	-6599
▁Of	-6600
▁SO	-6601
▁eh	-6602
Bato	-6603
uque	-6604
ilant	-6605
▁gift	-6606
iciary	-6607
▁2015.	-6608
▁floor	-6609
▁coffee	-6610
▁Instead	-6611
▁passing	-6612
▁permits	-6613
▁playing	-6614
▁Villegas	-6615
▁barangays	-6616
Two	-6617
urg	-6618
▁9,	-6619
▁Syr	-6620
elled	-6621
earing	-6622
▁Audit	-6623
▁Prote	-6624
▁Saudi	-6625
▁Victor	-6626
▁undergo	-6627
▁designed	-6628
▁tomorrow	-6629
▁preliminary	-6630
▁represented	-6631
28	-6632
gg	-6633
ENT	-6634
alk	-6635
key	-6636
▁Av	-6637
mosp	-6638
ogle	-6639
▁rin	-6640
▁joke	-6641
▁summ	-6642
▁toug	-6643
▁cards	-6644
▁delay	-6645
▁vision	-6646
▁awarded	-6647
▁promises	-6648
▁residence	-6649
▁diplomatic	-6650
26	-6651
hon	-6652
▁45	-6653
▁75	-6654
▁AR	-6655
alaw	-6656
hour	-6657
ocks	-6658
olfo	-6659
yong	-6660
yung	-6661
▁Mang	-6662
▁played	-6663
▁talaga	-6664
▁nations	-6665
▁properly	-6666
▁admission	-6667
▁interested	-6668
ico	-6669
TFRB	-6670
elda	-6671
ring	-6672
▁GOP	-6673
▁Ver	-6674
▁Vir	-6675
▁guy	-6676
▁rac	-6677
▁typ	-6678
osure	-6679
▁cars	-6680
▁mount	-6681
lection	-6682
▁Andres	-6683
▁handle	-6684
▁garbage	-6685
▁singing	-6686
▁Fernando	-6687
▁commemor	-6688
▁physical	-6689
▁Institute	-6690
▁Taguiwalo	-6691
▁protesters	-6692
CH	-6693
App	-6694
esy	-6695
▁Dig	-6696
▁lay	-6697
arate	-6698
▁Merc	-6699
▁scre	-6700
ansion	-6701
▁Bohol	-6702
▁remov	-6703
athered	-6704
percent	-6705
▁compre	-6706
▁retail	-6707
▁temper	-6708
▁arrival	-6709
▁facilit	-6710
▁meaning	-6711
▁attacked	-6712
▁possibly	-6713
▁properties	-6714
▁Christopher	-6715
PS	-6716
ux	-6717
las	-6718
upa	-6719
bert	-6720
▁Los	-6721
▁Tok	-6722
▁hal	-6723
▁tap	-6724
state	-6725
▁2012	-6726
▁Star	-6727
uevarra	-6728
▁column	-6729
▁engage	-6730
▁instru	-6731
▁intent	-6732
▁listen	-6733
▁Beijing	-6734
▁Sanchez	-6735
▁managed	-6736
▁trouble	-6737
▁announce	-6738
▁commandos	-6739
▁practices	-6740
▁applicants	-6741
oko	-6742
too	-6743
ilog	-6744
okno	-6745
olent	-6746
ropri	-6747
▁cook	-6748
▁nang	-6749
Former	-6750
▁Watch	-6751
▁advert	-6752
▁ambass	-6753
▁franch	-6754
▁Basilan	-6755
▁addicts	-6756
▁fulfill	-6757
▁perpetr	-6758
▁rallies	-6759
▁obtained	-6760
▁permanent	-6761
▁preparing	-6762
▁Ambassador	-6763
▁procurement	-6764
cont	-6765
▁flu	-6766
annel	-6767
apeña	-6768
gular	-6769
▁AMLC	-6770
▁Card	-6771
▁ally	-6772
▁sort	-6773
▁vent	-6774
ceived	-6775
▁Edgar	-6776
▁frequ	-6777
▁moves	-6778
▁pregn	-6779
▁France	-6780
▁permit	-6781
▁summer	-6782
▁findings	-6783
▁imprison	-6784
▁inauguration	-6785
▁respectively	-6786
aba	-6787
▁31	-6788
▁Ol	-6789
habu	-6790
irty	-6791
quez	-6792
thur	-6793
▁coc	-6794
phone	-6795
▁hair	-6796
▁ment	-6797
▁Pasay	-6798
▁Trade	-6799
▁usual	-6800
▁veget	-6801
ulating	-6802
▁banned	-6803
▁formed	-6804
▁Majority	-6805
▁stations	-6806
▁visitors	-6807
▁watching	-6808
▁Convention	-6809
▁Mayweather	-6810
▁presidents	-6811
BM	-6812
enz	-6813
ruck	-6814
▁202	-6815
▁Rem	-6816
▁Win	-6817
eting	-6818
istry	-6819
ocsin	-6820
onent	-6821
stron	-6822
▁Benj	-6823
▁clot	-6824
▁ease	-6825
Health	-6826
▁2013,	-6827
▁Hindi	-6828
▁entitled	-6829
▁protected	-6830
▁restaurant	-6831
▁distributed	-6832
37	-6833
Le	-6834
MO	-6835
.“[	-6836
but	-6837
vez	-6838
▁4.	-6839
leum	-6840
uine	-6841
▁Ban	-6842
/2015	-6843
cking	-6844
Source	-6845
▁sales	-6846
▁voter	-6847
▁Noynoy	-6848
▁counts	-6849
▁listed	-6850
Santiago	-6851
atorship	-6852
etroleum	-6853
▁British	-6854
▁content	-6855
▁operate	-6856
president	-6857
▁features	-6858
▁hospitals	-6859
▁politician	-6860
▁strengthen	-6861
▁congressmen	-6862
▁legislators	-6863
DOJ	-6864
ota	-6865
▁8,	-6866
vant	-6867
▁boss	-6868
▁drag	-6869
▁quit	-6870
emeter	-6871
gender	-6872
ildren	-6873
▁Putin	-6874
▁Santa	-6875
▁seemed	-6876
▁stands	-6877
▁absolute	-6878
▁gathered	-6879
▁Gatchalian	-6880
▁Technology	-6881
Car	-6882
▁3.	-6883
▁Es	-6884
▁Oz	-6885
mind	-6886
ogan	-6887
Roxas	-6888
Those	-6889
eches	-6890
▁Rail	-6891
▁wors	-6892
Before	-6893
▁equal	-6894
vereign	-6895
▁Miriam	-6896
▁basket	-6897
▁urging	-6898
▁Muslims	-6899
▁Solicitor	-6900
▁directive	-6901
▁Resolution	-6902
▁definitely	-6903
▁immigrants	-6904
▁mainstream	-6905
99	-6906
Bu	-6907
itz	-6908
arin	-6909
lers	-6910
▁25,	-6911
right	-6912
▁anch	-6913
▁colon	-6914
▁artist	-6915
▁abandon	-6916
▁closely	-6917
▁earthqu	-6918
▁creating	-6919
▁irregular	-6920
▁Villanueva	-6921
▁Republicans	-6922
▁participation	-6923
icon	-6924
▁Mer	-6925
▁surf	-6926
▁Bataan	-6927
▁greater	-6928
▁prepare	-6929
▁sending	-6930
▁sovereign	-6931
▁surrounding	-6932
GA	-6933
▁ICC	-6934
▁RTC	-6935
▁nin	-6936
gered	-6937
▁teen	-6938
ounder	-6939
▁error	-6940
▁schol	-6941
▁theme	-6942
▁degrees	-6943
▁joining	-6944
▁priests	-6945
struction	-6946
▁argument	-6947
▁villages	-6948
▁investments	-6949
▁establishment	-6950
osc	-6951
akas	-6952
xual	-6953
▁Flo	-6954
ensor	-6955
▁Abad	-6956
▁fare	-6957
arrass	-6958
▁Earth	-6959
▁antic	-6960
▁label	-6961
▁Taguig	-6962
▁bought	-6963
▁cancel	-6964
▁struct	-6965
▁suffer	-6966
▁Balutan	-6967
▁apology	-6968
▁shortage	-6969
▁developed	-6970
▁maintenance	-6971
ror	-6972
inog	-6973
uous	-6974
▁alam	-6975
▁laid	-6976
▁namin	-6977
▁Google	-6978
▁doctor	-6979
▁shares	-6980
arcotics	-6981
▁realize	-6982
▁aircraft	-6983
▁celebrity	-6984
▁concluded	-6985
▁resulting	-6986
▁sustained	-6987
▁stakeholders	-6988
▁DA	-6989
▁ta	-6990
whel	-6991
▁Hen	-6992
▁Tur	-6993
▁vul	-6994
oting	-6995
▁email	-6996
▁twice	-6997
▁Cooper	-6998
▁devast	-6999
▁impose	-7000
▁weight	-7001
▁worker	-7002
▁bloggers	-7003
identified	-7004
▁indicated	-7005
▁electricity	-7006
▁proclamation	-7007
ifth	-7008
▁Ren	-7009
▁Tug	-7010
rales	-7011
ucker	-7012
▁PCOO	-7013
▁Hotel	-7014
▁recon	-7015
▁noting	-7016
▁ticket	-7017
National	-7018
▁cabinet	-7019
▁brothers	-7020
▁formally	-7021
▁affidavit	-7022
▁celebrate	-7023
▁initially	-7024
▁organizers	-7025
Dr	-7026
asc	-7027
▁Fil	-7028
board	-7029
ivals	-7030
oples	-7031
▁Tele	-7032
intend	-7033
manuel	-7034
▁boxes	-7035
▁attrib	-7036
▁fought	-7037
▁behavior	-7038
government	-7039
▁expensive	-7040
▁highlight	-7041
▁ordinance	-7042
HA	-7043
fi	-7044
tw	-7045
rit	-7046
zen	-7047
bial	-7048
dalo	-7049
eras	-7050
issa	-7051
opol	-7052
teur	-7053
▁23,	-7054
▁eat	-7055
arlac	-7056
ulous	-7057
▁cheap	-7058
▁bloody	-7059
▁casual	-7060
▁applied	-7061
▁discour	-7062
▁nominee	-7063
▁Festival	-7064
▁accident	-7065
▁disputed	-7066
▁injuries	-7067
▁beautiful	-7068
▁broadcast	-7069
fortunately	-7070
cho	-7071
ray	-7072
▁36	-7073
▁hin	-7074
▁quo	-7075
human	-7076
ptive	-7077
▁PDAF	-7078
▁Plan	-7079
loaded	-7080
▁expand	-7081
▁guests	-7082
▁recall	-7083
▁reward	-7084
olentino	-7085
▁confisc	-7086
▁damaged	-7087
▁liberal	-7088
▁outlets	-7089
▁package	-7090
▁shocked	-7091
▁courtesy	-7092
▁incoming	-7093
▁speeches	-7094
▁accomplish	-7095
▁importance	-7096
Per	-7097
host	-7098
iary	-7099
ysis	-7100
▁Aut	-7101
▁Tru	-7102
▁Vol	-7103
,000.	-7104
ardon	-7105
night	-7106
▁hack	-7107
unction	-7108
▁patrol	-7109
▁Typhoon	-7110
▁adopted	-7111
▁fashion	-7112
▁sitting	-7113
▁thanked	-7114
▁circumst	-7115
▁appearance	-7116
▁consistent	-7117
▁counterpart	-7118
▁questioning	-7119
:“	-7120
Cl	-7121
ka	-7122
▁FO	-7123
athy	-7124
dule	-7125
icks	-7126
▁Pri	-7127
utral	-7128
▁Jack	-7129
▁bird	-7130
▁dies	-7131
▁hall	-7132
▁harm	-7133
▁kami	-7134
▁rout	-7135
▁steps	-7136
▁stock	-7137
▁interp	-7138
▁senate	-7139
▁strike	-7140
▁ballots	-7141
▁finance	-7142
▁Business	-7143
▁Overseas	-7144
▁cultural	-7145
▁dismissal	-7146
idro	-7147
▁Bon	-7148
▁Sta	-7149
imatu	-7150
▁tons	-7151
ipping	-7152
ossible	-7153
▁rumors	-7154
▁Rodolfo	-7155
▁outrage	-7156
▁worried	-7157
ocumented	-7158
▁mandated	-7159
▁collected	-7160
▁offensive	-7161
▁sometimes	-7162
Se	-7163
eda	-7164
ple	-7165
▁MM	-7166
irts	-7167
olid	-7168
▁Lee	-7169
▁tin	-7170
ascon	-7171
▁Bato	-7172
▁More	-7173
▁shoes	-7174
▁Imelda	-7175
▁awards	-7176
▁hiding	-7177
Netizens	-7178
intendent	-7179
▁Benjamin	-7180
▁Emmanuel	-7181
▁entering	-7182
▁referred	-7183
▁thorough	-7184
▁condemned	-7185
▁emotional	-7186
▁permission	-7187
Pal	-7188
aro	-7189
rey	-7190
Like	-7191
eces	-7192
▁Tax	-7193
▁isn	-7194
▁eval	-7195
ocking	-7196
▁sides	-7197
▁extrem	-7198
▁myself	-7199
▁function	-7200
prehensive	-7201
▁sufficient	-7202
▁acknowledged	-7203
NL	-7204
Then	-7205
▁Two	-7206
matic	-7207
point	-7208
▁2014,	-7209
▁phase	-7210
▁winds	-7211
▁Kerwin	-7212
▁Robert	-7213
▁Yolanda	-7214
▁capable	-7215
▁posting	-7216
▁constitu	-7217
▁kidnapping	-7218
▁punishment	-7219
▁accountable	-7220
29	-7221
raf	-7222
ault	-7223
icro	-7224
isan	-7225
uana	-7226
▁Lam	-7227
▁hyp	-7228
▁Last	-7229
▁Mall	-7230
▁alert	-7231
▁angry	-7232
▁exhib	-7233
politan	-7234
▁accred	-7235
▁assass	-7236
▁native	-7237
▁Germany	-7238
▁reduced	-7239
▁Lascañas	-7240
▁Dominguez	-7241
▁passenger	-7242
▁successor	-7243
▁compliance	-7244
▁personality	-7245
DC	-7246
eds	-7247
▁MA	-7248
PDEA	-7249
▁Rel	-7250
▁mad	-7251
anted	-7252
atuan	-7253
ishes	-7254
▁2011	-7255
▁prin	-7256
ration	-7257
▁disag	-7258
▁discr	-7259
▁guest	-7260
▁tough	-7261
▁Atienza	-7262
▁dispute	-7263
▁Purisima	-7264
▁relative	-7265
▁yourself	-7266
▁executives	-7267
▁indigenous	-7268
8-	-7269
Bal	-7270
war	-7271
eping	-7272
▁analy	-7273
ictions	-7274
▁Alejano	-7275
▁install	-7276
▁airports	-7277
▁According	-7278
▁addressing	-7279
▁agreements	-7280
▁encouraged	-7281
▁introduced	-7282
▁importation	-7283
ads	-7284
bar	-7285
iat	-7286
aste	-7287
itol	-7288
pass	-7289
usal	-7290
▁hab	-7291
abela	-7292
adian	-7293
▁Sher	-7294
▁symp	-7295
▁ware	-7296
embers	-7297
rolled	-7298
▁mechan	-7299
▁option	-7300
▁driving	-7301
▁enhance	-7302
▁Memorial	-7303
▁covering	-7304
▁contribute	-7305
▁criminality	-7306
▁Gold	-7307
Donald	-7308
▁comed	-7309
iveness	-7310
▁anonym	-7311
▁estate	-7312
▁excise	-7313
▁gender	-7314
▁probable	-7315
▁corporate	-7316
▁authorized	-7317
▁possession	-7318
▁conservative	-7319
34	-7320
RE	-7321
▁PHP	-7322
▁Tay	-7323
▁fee	-7324
First	-7325
llect	-7326
▁Atty	-7327
▁guns	-7328
▁niyo	-7329
▁trig	-7330
▁vend	-7331
icates	-7332
▁Paris	-7333
▁range	-7334
▁write	-7335
▁selfie	-7336
▁volunt	-7337
▁overall	-7338
▁Guevarra	-7339
▁convince	-7340
▁overwhel	-7341
▁apologize	-7342
▁essential	-7343
▁deployment	-7344
UN	-7345
aks	-7346
iam	-7347
who	-7348
▁SB	-7349
DENR	-7350
arsh	-7351
unan	-7352
▁tao	-7353
activ	-7354
▁Call	-7355
▁Cord	-7356
▁busy	-7357
▁evil	-7358
▁sole	-7359
▁Women	-7360
▁alarm	-7361
▁gives	-7362
▁Isidro	-7363
▁Tarlac	-7364
▁desire	-7365
▁honest	-7366
▁marked	-7367
▁phones	-7368
▁arrange	-7369
▁schedule	-7370
▁embarrass	-7371
OL	-7372
iqu	-7373
CBCP	-7374
look	-7375
rone	-7376
▁NBP	-7377
▁lik	-7378
ingly	-7379
licop	-7380
▁PNoy	-7381
abiliz	-7382
ojinog	-7383
▁Other	-7384
▁urban	-7385
/2015/0	-7386
Instead	-7387
ograles	-7388
▁French	-7389
▁escape	-7390
▁frustr	-7391
▁unfair	-7392
▁urgent	-7393
▁Network	-7394
▁Workers	-7395
▁replied	-7396
▁humanity	-7397
▁neighbor	-7398
▁Hernandez	-7399
▁promoting	-7400
▁complained	-7401
▁democratic	-7402
▁trafficking	-7403
▁administrator	-7404
27	-7405
lla	-7406
▁Edg	-7407
▁Who	-7408
▁bot	-7409
▁dyn	-7410
angco	-7411
▁brut	-7412
untinl	-7413
▁Build	-7414
▁Every	-7415
▁Tulfo	-7416
▁anger	-7417
▁ating	-7418
▁queen	-7419
▁signs	-7420
▁struck	-7421
▁raising	-7422
▁teacher	-7423
▁Defensor	-7424
▁suddenly	-7425
▁Protection	-7426
▁prohibited	-7427
▁independence	-7428
▁contributions	-7429
66	-7430
Or	-7431
di	-7432
yr	-7433
eal	-7434
icit	-7435
uate	-7436
west	-7437
▁Gab	-7438
▁flo	-7439
oline	-7440
ondon	-7441
▁Brig	-7442
▁Stud	-7443
▁anom	-7444
▁cops	-7445
▁pero	-7446
igrant	-7447
▁2018.	-7448
▁bound	-7449
▁catch	-7450
▁greet	-7451
▁multi	-7452
stronom	-7453
▁stores	-7454
▁tagged	-7455
▁Article	-7456
uckerberg	-7457
untinlupa	-7458
▁passport	-7459
▁Albayalde	-7460
▁apologized	-7461
Fr	-7462
eck	-7463
lao	-7464
ette	-7465
iana	-7466
▁Amp	-7467
▁Pab	-7468
▁Rog	-7469
▁unn	-7470
acion	-7471
useum	-7472
▁Both	-7473
charge	-7474
▁arbit	-7475
Napoles	-7476
acañang	-7477
respect	-7478
▁Arthur	-7479
▁liable	-7480
▁tasked	-7481
▁Billion	-7482
▁Manager	-7483
▁feature	-7484
▁helicop	-7485
▁extortion	-7486
▁judiciary	-7487
▁transition	-7488
▁specifically	-7489
SG	-7490
ca	-7491
’“	-7492
irm	-7493
▁5.	-7494
▁IN	-7495
atan	-7496
▁31,	-7497
▁Bin	-7498
▁tun	-7499
uthor	-7500
▁Post	-7501
▁Spok	-7502
▁fill	-7503
▁virus	-7504
▁Luneta	-7505
▁Rosario	-7506
▁bullets	-7507
▁conspir	-7508
▁smoking	-7509
▁moderate	-7510
▁purposes	-7511
▁functions	-7512
47	-7513
apo	-7514
ios	-7515
▁ho	-7516
Comm	-7517
amiz	-7518
ores	-7519
▁300	-7520
▁agr	-7521
▁cha	-7522
▁mir	-7523
▁Vera	-7524
▁heat	-7525
▁tort	-7526
▁prize	-7527
▁reven	-7528
▁cooper	-7529
▁desper	-7530
▁pushed	-7531
▁compens	-7532
▁Colombia	-7533
▁shopping	-7534
▁efficient	-7535
▁increases	-7536
▁Revolution	-7537
▁ambassador	-7538
▁revolutionary	-7539
▁Ka	-7540
▁Kab	-7541
elfin	-7542
▁ARMM	-7543
▁arms	-7544
▁army	-7545
▁crew	-7546
essing	-7547
▁Recto	-7548
▁consc	-7549
▁gross	-7550
▁Person	-7551
▁casino	-7552
▁gained	-7553
▁height	-7554
▁heroes	-7555
▁landsl	-7556
▁bishops	-7557
▁cleared	-7558
▁concept	-7559
▁obvious	-7560
▁Marcoses	-7561
▁Prosecut	-7562
▁internal	-7563
▁supplies	-7564
▁dictatorship	-7565
▁comprehensive	-7566
39	-7567
nity	-7568
onut	-7569
rend	-7570
▁10,	-7571
▁Mah	-7572
▁Sor	-7573
▁iPh	-7574
agram	-7575
▁Fire	-7576
▁drew	-7577
▁link	-7578
▁rare	-7579
▁smoke	-7580
▁excess	-7581
▁Jimenez	-7582
▁causing	-7583
▁comprom	-7584
▁violent	-7585
Malacañang	-7586
▁Australian	-7587
▁basketball	-7588
▁transgender	-7589
▁consequences	-7590
ius	-7591
kay	-7592
▁Sk	-7593
apag	-7594
▁15,	-7595
▁egg	-7596
▁yes	-7597
enido	-7598
▁boat	-7599
▁chem	-7600
▁pock	-7601
▁soft	-7602
asters	-7603
ijuana	-7604
▁Works	-7605
ignment	-7606
parency	-7607
▁bridge	-7608
▁riding	-7609
Pacquiao	-7610
▁Isabela	-7611
▁Science	-7612
▁founder	-7613
▁shortly	-7614
▁Parojinog	-7615
▁advocates	-7616
▁solutions	-7617
▁substance	-7618
▁Cooperation	-7619
▁Metropolitan	-7620
▁applications	-7621
▁unidentified	-7622
Rec	-7623
Yes	-7624
iar	-7625
▁Os	-7626
Dela	-7627
Upon	-7628
tery	-7629
▁mix	-7630
▁rhe	-7631
ching	-7632
inger	-7633
omber	-7634
▁mall	-7635
▁adopt	-7636
▁books	-7637
▁manner	-7638
▁parade	-7639
▁Housing	-7640
▁bombing	-7641
▁condemn	-7642
▁civilian	-7643
▁elements	-7644
▁prisoners	-7645
▁foreigners	-7646
▁parliament	-7647
▁credibility	-7648
▁examination	-7649
▁improvement	-7650
▁undocumented	-7651
lad	-7652
now	-7653
raz	-7654
rete	-7655
▁10-	-7656
▁Upd	-7657
▁mut	-7658
ansom	-7659
▁coin	-7660
▁Rubio	-7661
▁Umali	-7662
▁antid	-7663
▁beach	-7664
▁stamp	-7665
election	-7666
▁Legarda	-7667
▁figures	-7668
▁genuine	-7669
▁assembly	-7670
▁incompet	-7671
▁occasion	-7672
▁scholars	-7673
▁celebrities	-7674
67	-7675
Law	-7676
lon	-7677
▁CC	-7678
cean	-7679
itis	-7680
▁Det	-7681
arked	-7682
ebast	-7683
itics	-7684
▁Gonz	-7685
▁barr	-7686
▁deem	-7687
ailand	-7688
▁Palin	-7689
Several	-7690
ivalent	-7691
▁Delfin	-7692
▁Ozamiz	-7693
▁bullet	-7694
▁ngayon	-7695
Although	-7696
▁Journal	-7697
▁cameras	-7698
▁failing	-7699
▁noticed	-7700
▁anywhere	-7701
▁ensuring	-7702
▁imported	-7703
▁certainly	-7704
▁spreading	-7705
▁completely	-7706
▁represents	-7707
▁Comprehensive	-7708
VP	-7709
uno	-7710
....	-7711
NAIA	-7712
▁Squ	-7713
▁hun	-7714
▁tow	-7715
▁fron	-7716
enders	-7717
▁2012,	-7718
▁2013.	-7719
▁chain	-7720
▁clash	-7721
▁cloud	-7722
▁worry	-7723
▁centav	-7724
▁resume	-7725
▁jeepney	-7726
▁targets	-7727
▁Catholics	-7728
▁Muntinlupa	-7729
mn	-7730
ube	-7731
▁By	-7732
etic	-7733
ogue	-7734
ules	-7735
▁Tor	-7736
▁rif	-7737
ieces	-7738
ighty	-7739
illas	-7740
ronic	-7741
▁Mags	-7742
▁meat	-7743
illera	-7744
▁Joint	-7745
▁Pulse	-7746
▁Their	-7747
▁miles	-7748
▁ranks	-7749
working	-7750
▁camera	-7751
▁deserv	-7752
▁prolif	-7753
▁sacrif	-7754
▁neither	-7755
▁players	-7756
▁precinct	-7757
ordination	-7758
▁ownership	-7759
▁principle	-7760
23	-7761
Res	-7762
ñas	-7763
bust	-7764
held	-7765
ingg	-7766
angel	-7767
itage	-7768
ulted	-7769
water	-7770
▁Bush	-7771
▁Greg	-7772
▁Inst	-7773
▁bars	-7774
▁tend	-7775
revalo	-7776
▁Pasig	-7777
▁treas	-7778
▁Diokno	-7779
▁ouster	-7780
▁thinks	-7781
ebastian	-7782
▁Fariñas	-7783
▁Mariano	-7784
▁suspend	-7785
▁apparent	-7786
▁billions	-7787
▁hostages	-7788
▁relevant	-7789
▁commuters	-7790
▁declaring	-7791
▁requirement	-7792
▁investigators	-7793
LD	-7794
ATCH	-7795
iter	-7796
orio	-7797
▁bon	-7798
anofi	-7799
pired	-7800
shabu	-7801
▁anal	-7802
econom	-7803
elling	-7804
▁2018,	-7805
▁delib	-7806
▁fault	-7807
▁oblig	-7808
▁troop	-7809
oration	-7810
▁diesel	-7811
Filipino	-7812
▁ability	-7813
▁balance	-7814
▁funeral	-7815
▁recover	-7816
▁sharing	-7817
▁Alliance	-7818
▁finished	-7819
▁machines	-7820
▁massacre	-7821
▁upcoming	-7822
▁graduates	-7823
▁earthquake	-7824
-6	-7825
WD	-7826
iot	-7827
▁Da	-7828
▁Sw	-7829
amay	-7830
izon	-7831
ocol	-7832
▁11,	-7833
▁12,	-7834
▁Kal	-7835
Every	-7836
iples	-7837
▁Kian	-7838
▁door	-7839
▁jump	-7840
▁unex	-7841
Manila	-7842
▁Queen	-7843
▁concl	-7844
▁minor	-7845
▁unity	-7846
ometown	-7847
▁explan	-7848
▁insult	-7849
▁rhetor	-7850
▁unanim	-7851
▁Updates	-7852
▁setting	-7853
▁studies	-7854
▁demanded	-7855
▁crackdown	-7856
▁investors	-7857
▁amendments	-7858
▁photograph	-7859
▁circumstances	-7860
▁communication	-7861
49	-7862
equ	-7863
uts	-7864
cers	-7865
mate	-7866
▁Tre	-7867
Mayor	-7868
erous	-7869
apilon	-7870
talion	-7871
urning	-7872
▁admin	-7873
▁blast	-7874
▁gusto	-7875
▁hired	-7876
▁trash	-7877
▁behalf	-7878
▁distur	-7879
▁vulner	-7880
ailangan	-7881
▁advance	-7882
▁animals	-7883
▁dollars	-7884
▁winners	-7885
▁Military	-7886
▁strength	-7887
▁Tolentino	-7888
▁amounting	-7889
▁decisions	-7890
▁foundation	-7891
AM	-7892
big	-7893
dem	-7894
eff	-7895
raq	-7896
▁Ne	-7897
ewis	-7898
ider	-7899
rers	-7900
▁16,	-7901
▁Fox	-7902
▁SWS	-7903
▁Yap	-7904
class	-7905
crack	-7906
lings	-7907
▁1986	-7908
▁LGUs	-7909
▁hide	-7910
▁lift	-7911
▁tack	-7912
achers	-7913
▁allows	-7914
▁	-7915
e	-7916
t	-7917
a	-7918
i	-7919
o	-7920
n	-7921
s	-7922
r	-7923
h	-7924
l	-7925
d	-7926
c	-7927
u	-7928
m	-7929
p	-7930
g	-7931
f	-7932
y	-7933
w	-7934
b	-7935
.	-7936
,	-7937
v	-7938
k	-7939
P	-7940
A	-7941
T	-7942
C	-7943
S	-7944
M	-7945
I	-7946
-	-7947
D	-7948
’	-7949
R	-7950
B	-7951
”	-7952
0	-7953
“	-7954
N	-7955
F	-7956
1	-7957
L	-7958
x	-7959
E	-7960
O	-7961
H	-7962
2	-7963
z	-7964
j	-7965
q	-7966
W	-7967
:	-7968
G	-7969
)	-7970
(	-7971
J	-7972
U	-7973
5	-7974
3	-7975
V	-7976
6	-7977
4	-7978
9	-7979
7	-7980
K	-7981
8	-7982
?	-7983
Y	-7984
/	-7985
'	-7986
‘	-7987
;	-7988
!	-7989
—	-7990
ñ	-7991
[	-7992
]	-7993
"	-7994
Q	-7995
