<unk>	0
<s>	0
</s>	0
<pad>	0
▁t	-0
he	-1
▁a	-2
in	-3
▁the	-4
re	-5
on	-6
er	-7
▁s	-8
at	-9
en	-10
▁o	-11
▁w	-12
an	-13
ed	-14
or	-15
▁c	-16
is	-17
es	-18
it	-19
▁p	-20
al	-21
▁b	-22
▁of	-23
▁f	-24
ing	-25
il	-26
▁to	-27
ar	-28
▁an	-29
▁in	-30
ou	-31
ion	-32
ic	-33
as	-34
id	-35
ent	-36
▁m	-37
▁d	-38
▁h	-39
▁and	-40
▁th	-41
om	-42
le	-43
▁n	-44
▁P	-45
▁re	-46
ut	-47
ay	-48
▁C	-49
st	-50
▁be	-51
▁M	-52
▁l	-53
▁A	-54
ro	-55
▁S	-56
ve	-57
ct	-58
▁that	-59
▁e	-60
▁on	-61
ation	-62
▁he	-63
ot	-64
▁sa	-65
▁g	-66
im	-67
ol	-68
▁for	-69
ig	-70
▁is	-71
ad	-72
ly	-73
▁D	-74
ill	-75
ur	-76
ce	-77
▁T	-78
se	-79
res	-80
un	-81
ment	-82
ers	-83
pp	-84
▁said	-85
et	-86
am	-87
ir	-88
ow	-89
▁I	-90
ver	-91
▁wh	-92
▁al	-93
▁R	-94
▁B	-95
te	-96
▁as	-97
ag	-98
ac	-99
el	-100
▁st	-101
os	-102
ter	-103
ate	-104
▁was	-105
ld	-106
ul	-107
us	-108
ili	-109
▁pro	-110
▁it	-111
▁con	-112
ident	-113
ith	-114
▁F	-115
qu	-116
ity	-117
▁we	-118
ec	-119
oun	-120
▁L	-121
▁with	-122
ist	-123
▁“	-124
ial	-125
The	-126
▁by	-127
and	-128
▁y	-129
ort	-130
ain	-131
▁r	-132
resident	-133
▁(	-134
op	-135
est	-136
her	-137
▁fr	-138
▁N	-139
ice	-140
▁v	-141
▁not	-142
▁com	-143
▁at	-144
red	-145
▁are	-146
if	-147
iv	-148
,”	-149
ak	-150
ab	-151
▁his	-152
▁ha	-153
art	-154
ru	-155
▁k	-156
ould	-157
od	-158
ang	-159
▁will	-160
ch	-161
▁from	-162
▁or	-163
▁J	-164
oc	-165
▁2	-166
ies	-167
ant	-168
▁G	-169
our	-170
▁ex	-171
▁de	-172
▁H	-173
ore	-174
▁su	-175
ht	-176
▁sh	-177
ive	-178
ess	-179
.“	-180
▁ne	-181
hili	-182
ppin	-183
ust	-184
hilippin	-185
uter	-186
▁who	-187
▁ch	-188
ong	-189
uterte	-190
▁President	-191
▁E	-192
ect	-193
▁go	-194
▁1	-195
end	-196
▁have	-197
ob	-198
▁Philippin	-199
▁has	-200
ud	-201
em	-202
▁ad	-203
th	-204
▁Ch	-205
▁j	-206
--	-207
ie	-208
▁Duterte	-209
aw	-210
▁le	-211
▁un	-212
um	-213
▁O	-214
▁their	-215
▁The	-216
ast	-217
ap	-218
▁ag	-219
ary	-220
▁W	-221
ep	-222
ia	-223
▁In	-224
ino	-225
tr	-226
00	-227
ight	-228
so	-229
all	-230
iz	-231
ren	-232
▁tr	-233
up	-234
day	-235
ire	-236
ear	-237
ff	-238
ard	-239
▁off	-240
ib	-241
▁were	-242
ost	-243
au	-244
▁U	-245
der	-246
▁her	-247
▁all	-248
▁also	-249
▁they	-250
▁ab	-251
ok	-252
▁res	-253
cc	-254
out	-255
pl	-256
age	-257
▁this	-258
ign	-259
port	-260
▁Man	-261
ther	-262
vern	-263
ila	-264
▁pol	-265
▁se	-266
▁sp	-267
▁whe	-268
▁would	-269
ure	-270
▁pr	-271
ide	-272
ated	-273
ub	-274
ue	-275
ction	-276
ome	-277
ous	-278
▁V	-279
.”	-280
▁im	-281
▁pe	-282
ans	-283
▁20	-284
ich	-285
▁wor	-286
ip	-287
▁coun	-288
▁Philippines	-289
ace	-290
▁can	-291
vernment	-292
les	-293
ress	-294
▁she	-295
ations	-296
ding	-297
ational	-298
▁dis	-299
ell	-300
▁bec	-301
ator	-302
▁but	-303
▁Manila	-304
▁Mar	-305
ack	-306
▁inc	-307
▁had	-308
av	-309
ally	-310
ople	-311
ik	-312
lic	-313
▁gr	-314
mer	-315
▁per	-316
▁pl	-317
ron	-318
▁government	-319
fter	-320
▁you	-321
ind	-322
ose	-323
ilip	-324
per	-325
▁201	-326
▁ar	-327
ition	-328
▁cl	-329
▁which	-330
og	-331
▁me	-332
▁Ad	-333
▁out	-334
▁been	-335
ass	-336
ens	-337
▁Sen	-338
one	-339
ime	-340
oug	-341
▁ev	-342
▁do	-343
act	-344
▁its	-345
▁year	-346
▁other	-347
leg	-348
ine	-349
ance	-350
▁up	-351
▁people	-352
▁acc	-353
▁comm	-354
▁K	-355
▁again	-356
ause	-357
▁countr	-358
▁one	-359
oy	-360
ted	-361
ile	-362
▁app	-363
ake	-364
▁new	-365
iss	-366
rug	-367
ao	-368
ber	-369
▁after	-370
icles	-371
ail	-372
▁about	-373
▁rec	-374
▁City	-375
▁part	-376
▁Filip	-377
ts	-378
ied	-379
▁am	-380
▁law	-381
illion	-382
ound	-383
▁offic	-384
ase	-385
----	-386
oin	-387
In	-388
obo	-389
ublic	-390
▁add	-391
▁more	-392
ree	-393
▁just	-394
▁Chron	-395
▁Adobo	-396
▁our	-397
▁Chronicles	-398
▁en	-399
to	-400
for	-401
are	-402
▁them	-403
▁us	-404
ical	-405
▁man	-406
istr	-407
▁Philippine	-408
amp	-409
▁against	-410
▁because	-411
uring	-412
▁when	-413
▁cr	-414
▁there	-415
ence	-416
ike	-417
▁so	-418
▁country	-419
du	-420
▁drug	-421
▁An	-422
▁no	-423
▁inv	-424
very	-425
▁president	-426
pect	-427
▁dec	-428
ates	-429
pt	-430
▁him	-431
▁comp	-432
▁report	-433
ays	-434
ution	-435
▁cont	-436
▁if	-437
▁prov	-438
▁qu	-439
min	-440
ict	-441
ite	-442
erson	-443
▁over	-444
ret	-445
▁tw	-446
▁only	-447
ities	-448
enc	-449
▁supp	-450
ook	-451
man	-452
ian	-453
own	-454
ked	-455
tern	-456
gr	-457
oup	-458
▁state	-459
io	-460
▁Th	-461
ade	-462
wn	-463
ks	-464
▁3	-465
ew	-466
▁pre	-467
erv	-468
ish	-469
▁what	-470
ult	-471
ments	-472
He	-473
omm	-474
quire	-475
ame	-476
quino	-477
king	-478
ief	-479
able	-480
ough	-481
▁under	-482
▁St	-483
▁ele	-484
▁kn	-485
vel	-486
▁act	-487
▁Al	-488
me	-489
▁any	-490
ge	-491
▁imp	-492
hed	-493
▁Un	-494
ince	-495
ings	-496
old	-497
▁during	-498
▁should	-499
mp	-500
▁than	-501
anc	-502
med	-503
▁time	-504
ove	-505
eral	-506
▁med	-507
..	-508
▁De	-509
▁last	-510
▁being	-511
▁br	-512
▁reg	-513
▁like	-514
irst	-515
ors	-516
▁mem	-517
▁two	-518
ord	-519
▁may	-520
▁official	-521
▁Aquino	-522
ourt	-523
▁police	-524
▁sec	-525
ious	-526
ath	-527
ach	-528
▁now	-529
low	-530
▁public	-531
ited	-532
lud	-533
retary	-534
quirer	-535
▁Re	-536
ision	-537
Th	-538
ood	-539
▁Inquirer	-540
und	-541
▁some	-542
▁Y	-543
▁sc	-544
▁It	-545
▁call	-546
▁lead	-547
▁added	-548
fe	-549
▁Fr	-550
ating	-551
▁even	-552
▁As	-553
form	-554
▁cons	-555
esp	-556
▁iss	-557
arr	-558
▁May	-559
▁‘	-560
▁say	-561
ll	-562
air	-563
▁Tr	-564
ning	-565
▁kill	-566
▁show	-567
▁could	-568
▁Rod	-569
fore	-570
rig	-571
▁ass	-572
get	-573
▁bl	-574
▁Ar	-575
▁former	-576
▁ter	-577
ouse	-578
000	-579
▁group	-580
inos	-581
ned	-582
▁includ	-583
ministr	-584
▁person	-585
▁Sec	-586
▁Rep	-587
ual	-588
ond	-589
▁mon	-590
cent	-591
▁rem	-592
ina	-593
ady	-594
▁how	-595
▁first	-596
ues	-597
▁want	-598
▁did	-599
ise	-600
It	-601
osed	-602
ject	-603
▁att	-604
ved	-605
imes	-606
▁Filipino	-607
▁alleg	-608
rent	-609
▁He	-610
artment	-611
we	-612
▁work	-613
,000	-614
ilit	-615
sel	-616
resent	-617
▁te	-618
ording	-619
ces	-620
ons	-621
bers	-622
▁ind	-623
▁right	-624
▁million	-625
itic	-626
▁co	-627
ting	-628
▁Comm	-629
▁fam	-630
uth	-631
ased	-632
igh	-633
▁sen	-634
ives	-635
▁Le	-636
ily	-637
ctions	-638
ission	-639
▁ro	-640
▁need	-641
▁media	-642
We	-643
▁into	-644
ced	-645
▁support	-646
▁Rodrig	-647
let	-648
▁post	-649
ater	-650
▁bet	-651
▁ng	-652
▁before	-653
),	-654
▁Dep	-655
▁em	-656
ative	-657
ents	-658
ax	-659
ah	-660
▁4	-661
▁your	-662
inal	-663
▁told	-664
▁ann	-665
▁camp	-666
▁Rodrigo	-667
▁percent	-668
▁disc	-669
▁na	-670
ty	-671
ism	-672
iew	-673
ild	-674
rump	-675
▁fil	-676
▁Senate	-677
rest	-678
▁sur	-679
▁my	-680
ency	-681
▁[	-682
ions	-683
▁National	-684
▁oper	-685
ared	-686
▁Rob	-687
ered	-688
▁administr	-689
▁pos	-690
▁know	-691
▁5	-692
ory	-693
ek	-694
▁while	-695
ra	-696
anes	-697
▁rel	-698
▁where	-699
▁those	-700
stit	-701
▁vot	-702
terv	-703
irect	-704
▁invest	-705
▁ph	-706
ier	-707
▁Bul	-708
▁years	-709
cos	-710
▁loc	-711
▁serv	-712
▁Secretary	-713
▁Dav	-714
▁char	-715
▁still	-716
com	-717
ices	-718
▁made	-719
reat	-720
▁war	-721
ug	-722
duct	-723
▁soc	-724
▁rep	-725
ri	-726
▁sub	-727
aking	-728
other	-729
▁Filipinos	-730
redo	-731
▁ins	-732
▁conf	-733
▁Ro	-734
xt	-735
arl	-736
▁exp	-737
use	-738
▁members	-739
ave	-740
con	-741
▁end	-742
ines	-743
▁these	-744
▁most	-745
▁sus	-746
▁get	-747
ower	-748
hip	-749
But	-750
ific	-751
its	-752
ti	-753
ority	-754
▁month	-755
▁bel	-756
▁Trump	-757
andid	-758
▁statement	-759
▁own	-760
ized	-761
gram	-762
).	-763
▁del	-764
▁hel	-765
ists	-766
rough	-767
hing	-768
▁Department	-769
ged	-770
ploy	-771
▁trans	-772
illeg	-773
ful	-774
plain	-775
▁cor	-776
▁alleged	-777
ry	-778
ft	-779
▁news	-780
ular	-781
uc	-782
ven	-783
This	-784
▁ent	-785
alth	-786
▁Lim	-787
▁many	-788
▁candid	-789
--------	-790
app	-791
▁col	-792
ather	-793
ready	-794
aim	-795
▁str	-796
▁back	-797
▁officials	-798
ick	-799
ert	-800
▁vis	-801
▁fl	-802
▁case	-803
▁cas	-804
▁help	-805
▁don	-806
itical	-807
ought	-808
velop	-809
▁administration	-810
▁resp	-811
▁through	-812
anao	-813
ount	-814
▁19	-815
aj	-816
▁prob	-817
ecial	-818
▁bu	-819
▁already	-820
▁commit	-821
letin	-822
ever	-823
▁Marcos	-824
ms	-825
▁Davao	-826
urs	-827
ech	-828
aign	-829
ene	-830
▁Bulletin	-831
▁ang	-832
ollow	-833
▁three	-834
▁every	-835
ayan	-836
oint	-837
▁House	-838
▁order	-839
▁Senator	-840
▁leg	-841
ool	-842
▁sign	-843
▁make	-844
▁eff	-845
▁pass	-846
ility	-847
▁campaign	-848
▁then	-849
ands	-850
▁spe	-851
▁see	-852
▁Con	-853
▁milit	-854
▁bus	-855
gan	-856
▁sy	-857
zon	-858
▁presidential	-859
ternational	-860
uss	-861
led	-862
ward	-863
▁ac	-864
▁Mon	-865
▁Robredo	-866
ark	-867
hen	-868
▁des	-869
▁head	-870
uman	-871
ued	-872
▁6	-873
iness	-874
ional	-875
ov	-876
▁since	-877
illegal	-878
used	-879
▁same	-880
iol	-881
▁very	-882
▁contin	-883
▁Is	-884
▁po	-885
▁way	-886
▁We	-887
▁well	-888
▁Off	-889
ange	-890
ife	-891
▁det	-892
▁good	-893
co	-894
▁down	-895
stitution	-896
▁ref	-897
▁long	-898
ne	-899
▁prop	-900
▁investig	-901
▁New	-902
NP	-903
▁contr	-904
aring	-905
▁program	-906
ified	-907
▁—	-908
▁min	-909
ible	-910
▁tal	-911
▁claim	-912
meric	-913
▁bo	-914
▁opp	-915
▁follow	-916
illanes	-917
mb	-918
ivers	-919
▁gu	-920
ope	-921
▁high	-922
▁prom	-923
tee	-924
▁national	-925
mit	-926
▁week	-927
▁Sup	-928
▁tax	-929
▁drugs	-930
▁such	-931
ald	-932
ior	-933
ital	-934
indanao	-935
As	-936
▁happ	-937
▁including	-938
▁fe	-939
▁2016	-940
mber	-941
inoy	-942
▁illegal	-943
▁senator	-944
ants	-945
▁local	-946
▁world	-947
eng	-948
ute	-949
▁announ	-950
▁dep	-951
ention	-952
▁Mal	-953
▁Lima	-954
chool	-955
▁Times	-956
ying	-957
rop	-958
ung	-959
oth	-960
▁asked	-961
▁Court	-962
ton	-963
▁commun	-964
▁def	-965
▁conc	-966
▁op	-967
ano	-968
the	-969
ink	-970
ised	-971
▁court	-972
▁Just	-973
▁far	-974
eneral	-975
row	-976
▁rece	-977
▁allow	-978
▁Americ	-979
▁military	-980
▁among	-981
▁Pro	-982
▁take	-983
▁fin	-984
▁stud	-985
▁city	-986
▁start	-987
▁Pol	-988
▁For	-989
aff	-990
ern	-991
▁family	-992
▁look	-993
▁And	-994
▁aff	-995
▁dr	-996
ween	-997
▁day	-998
▁chief	-999
▁office	-1000
▁belie	-1001
arang	-1002
iday	-1003
▁run	-1004
que	-1005
ner	-1006
▁quest	-1007
▁Mr	-1008
ork	-1009
eb	-1010
▁proc	-1011
▁viol	-1012
▁direct	-1013
▁between	-1014
▁inte	-1015
▁political	-1016
▁social	-1017
cr	-1018
self	-1019
ption	-1020
▁7	-1021
▁Trillanes	-1022
ness	-1023
ix	-1024
▁ban	-1025
▁next	-1026
▁Ag	-1027
▁ce	-1028
▁project	-1029
izens	-1030
book	-1031
▁here	-1032
▁terr	-1033
▁Mayor	-1034
▁child	-1035
▁ret	-1036
ga	-1037
pr	-1038
▁giv	-1039
▁Wh	-1040
ured	-1041
▁Vice	-1042
ived	-1043
▁inst	-1044
▁spok	-1045
ended	-1046
▁interv	-1047
▁fore	-1048
▁num	-1049
▁decl	-1050
▁10	-1051
▁cap	-1052
orth	-1053
uch	-1054
Wh	-1055
▁set	-1056
ph	-1057
▁But	-1058
olution	-1059
▁Office	-1060
▁Mindanao	-1061
pected	-1062
▁meet	-1063
aug	-1064
▁called	-1065
▁Q	-1066
An	-1067
▁Monday	-1068
▁recent	-1069
▁business	-1070
▁cle	-1071
urity	-1072
▁filed	-1073
ained	-1074
▁ord	-1075
▁Ab	-1076
atch	-1077
▁wom	-1078
▁inf	-1079
▁tru	-1080
stem	-1081
▁sm	-1082
▁Gr	-1083
men	-1084
RP	-1085
▁arrest	-1086
velopment	-1087
▁ob	-1088
way	-1089
acebook	-1090
▁plan	-1091
▁according	-1092
ara	-1093
atur	-1094
ened	-1095
oney	-1096
lect	-1097
▁prev	-1098
▁auth	-1099
ling	-1100
▁nam	-1101
▁9	-1102
ired	-1103
olog	-1104
▁cur	-1105
▁saying	-1106
iver	-1107
▁adv	-1108
▁does	-1109
▁dif	-1110
ually	-1111
▁employ	-1112
▁wr	-1113
▁real	-1114
lement	-1115
ric	-1116
▁critic	-1117
ody	-1118
als	-1119
inc	-1120
iate	-1121
▁Go	-1122
oe	-1123
▁vict	-1124
▁pa	-1125
sec	-1126
iting	-1127
feren	-1128
▁China	-1129
añ	-1130
any	-1131
ral	-1132
▁dem	-1133
▁rele	-1134
ving	-1135
omet	-1136
▁Friday	-1137
▁Se	-1138
▁proble	-1139
ures	-1140
▁used	-1141
▁ser	-1142
ize	-1143
▁power	-1144
▁incre	-1145
atives	-1146
ves	-1147
...	-1148
▁They	-1149
ending	-1150
ided	-1151
▁school	-1152
ista	-1153
▁death	-1154
▁Police	-1155
ges	-1156
▁big	-1157
▁why	-1158
▁Commission	-1159
urn	-1160
▁fac	-1161
▁use	-1162
▁Pinoy	-1163
xas	-1164
▁vide	-1165
▁est	-1166
line	-1167
▁found	-1168
▁fund	-1169
▁8	-1170
ros	-1171
▁pay	-1172
▁interview	-1173
ense	-1174
▁En	-1175
▁peace	-1176
▁decision	-1177
eration	-1178
▁days	-1179
▁Justice	-1180
▁must	-1181
acy	-1182
▁another	-1183
not	-1184
▁cases	-1185
▁invol	-1186
son	-1187
▁la	-1188
▁reported	-1189
20	-1190
▁US	-1191
▁leaders	-1192
reme	-1193
▁fact	-1194
▁human	-1195
▁GRP	-1196
conom	-1197
inay	-1198
▁appro	-1199
▁Reg	-1200
amb	-1201
nes	-1202
▁sim	-1203
formation	-1204
▁complain	-1205
▁ext	-1206
▁Sp	-1207
▁rights	-1208
uesday	-1209
▁conduct	-1210
▁billion	-1211
▁int	-1212
▁Facebook	-1213
▁elect	-1214
outh	-1215
▁Miss	-1216
▁United	-1217
▁elections	-1218
▁really	-1219
▁Cor	-1220
▁money	-1221
arangay	-1222
▁poss	-1223
▁rev	-1224
▁Tuesday	-1225
▁rest	-1226
ongress	-1227
ressed	-1228
▁Ass	-1229
▁killed	-1230
ya	-1231
▁bill	-1232
elf	-1233
▁rul	-1234
▁che	-1235
▁fight	-1236
▁bro	-1237
az	-1238
iet	-1239
▁200	-1240
▁much	-1241
ason	-1242
▁both	-1243
abor	-1244
ization	-1245
▁ke	-1246
▁province	-1247
▁PNP	-1248
br	-1249
▁air	-1250
arlier	-1251
▁think	-1252
▁No	-1253
ellow	-1254
▁pres	-1255
▁net	-1256
atic	-1257
▁hand	-1258
▁cent	-1259
▁system	-1260
▁around	-1261
tal	-1262
▁video	-1263
ains	-1264
▁San	-1265
▁main	-1266
▁contro	-1267
ureau	-1268
vers	-1269
▁Congress	-1270
ecut	-1271
etro	-1272
ursday	-1273
ccording	-1274
▁prote	-1275
▁process	-1276
▁workers	-1277
onald	-1278
▁let	-1279
ims	-1280
urch	-1281
▁import	-1282
awi	-1283
▁Thursday	-1284
ull	-1285
▁visit	-1286
▁put	-1287
ocr	-1288
▁Ju	-1289
rist	-1290
▁phot	-1291
▁sl	-1292
gest	-1293
▁press	-1294
▁without	-1295
▁Cl	-1296
▁discuss	-1297
iminal	-1298
On	-1299
ference	-1300
uty	-1301
▁fail	-1302
less	-1303
▁number	-1304
ages	-1305
▁give	-1306
▁mga	-1307
▁sit	-1308
sp	-1309
ito	-1310
▁chair	-1311
ient	-1312
▁organ	-1313
ering	-1314
▁requ	-1315
▁today	-1316
hes	-1317
artial	-1318
▁Roxas	-1319
ead	-1320
reed	-1321
▁sever	-1322
▁come	-1323
▁stand	-1324
▁politic	-1325
▁top	-1326
osition	-1327
▁win	-1328
▁terror	-1329
▁announced	-1330
▁ur	-1331
▁bas	-1332
land	-1333
ednes	-1334
▁cre	-1335
▁four	-1336
▁activ	-1337
ednesday	-1338
▁priv	-1339
▁committee	-1340
ways	-1341
▁several	-1342
▁Pac	-1343
test	-1344
▁security	-1345
▁yet	-1346
▁least	-1347
ators	-1348
Duterte	-1349
ale	-1350
▁partic	-1351
ards	-1352
▁ear	-1353
▁Wednesday	-1354
▁Republic	-1355
▁mat	-1356
une	-1357
wh	-1358
▁held	-1359
▁question	-1360
▁Com	-1361
▁Cent	-1362
▁party	-1363
.”“	-1364
ison	-1365
▁ve	-1366
▁life	-1367
▁issue	-1368
▁attack	-1369
▁2017	-1370
▁"	-1371
▁She	-1372
▁given	-1373
idence	-1374
▁Franc	-1375
▁job	-1376
▁name	-1377
go	-1378
▁children	-1379
▁cit	-1380
▁issued	-1381
▁Jr	-1382
lo	-1383
▁pop	-1384
iving	-1385
▁foreign	-1386
She	-1387
▁cond	-1388
etition	-1389
▁Binay	-1390
▁move	-1391
▁ed	-1392
According	-1393
▁implement	-1394
iend	-1395
▁Supreme	-1396
orn	-1397
ets	-1398
EA	-1399
udget	-1400
▁mess	-1401
▁econom	-1402
ler	-1403
ys	-1404
ointed	-1405
▁town	-1406
▁maj	-1407
aining	-1408
ection	-1409
▁nation	-1410
▁This	-1411
▁mag	-1412
ished	-1413
If	-1414
yo	-1415
▁met	-1416
ger	-1417
▁men	-1418
▁health	-1419
enef	-1420
cept	-1421
▁Malac	-1422
oon	-1423
▁beh	-1424
▁exper	-1425
▁fire	-1426
▁Francis	-1427
▁ra	-1428
▁test	-1429
olic	-1430
ars	-1431
▁Jan	-1432
oro	-1433
▁current	-1434
▁represent	-1435
ada	-1436
agu	-1437
▁den	-1438
iron	-1439
▁mot	-1440
▁ste	-1441
▁candidate	-1442
▁II	-1443
▁Act	-1444
▁list	-1445
▁countries	-1446
▁Marawi	-1447
añang	-1448
▁author	-1449
▁become	-1450
IL	-1451
▁cour	-1452
▁corru	-1453
▁av	-1454
osp	-1455
▁Lib	-1456
▁sold	-1457
ience	-1458
▁came	-1459
▁Pal	-1460
ato	-1461
▁information	-1462
ex	-1463
▁Lu	-1464
▁free	-1465
.,	-1466
ten	-1467
▁five	-1468
▁operations	-1469
▁benef	-1470
▁mar	-1471
▁Chief	-1472
▁protest	-1473
iao	-1474
▁read	-1475
uel	-1476
lish	-1477
▁Poe	-1478
ama	-1479
year	-1480
oral	-1481
▁Or	-1482
▁record	-1483
tle	-1484
▁earlier	-1485
▁Pe	-1486
▁Part	-1487
de	-1488
esperson	-1489
orts	-1490
▁present	-1491
ops	-1492
▁ident	-1493
▁election	-1494
▁Que	-1495
▁sour	-1496
▁investigation	-1497
lam	-1498
ird	-1499
▁friend	-1500
▁months	-1501
▁Jose	-1502
▁six	-1503
▁reporters	-1504
▁contract	-1505
▁second	-1506
▁women	-1507
▁groups	-1508
▁known	-1509
ck	-1510
aged	-1511
ecutive	-1512
▁change	-1513
▁cert	-1514
▁account	-1515
▁going	-1516
ocu	-1517
▁General	-1518
▁mayor	-1519
▁cannot	-1520
▁Ex	-1521
▁Sun	-1522
So	-1523
quiao	-1524
▁effect	-1525
▁form	-1526
err	-1527
ecially	-1528
▁open	-1529
ank	-1530
▁problem	-1531
mon	-1532
▁Metro	-1533
▁won	-1534
til	-1535
▁Ros	-1536
tic	-1537
eld	-1538
eni	-1539
▁Pr	-1540
espite	-1541
▁Law	-1542
▁30	-1543
lebr	-1544
ians	-1545
mediate	-1546
▁12	-1547
ruct	-1548
ai	-1549
▁night	-1550
uds	-1551
ross	-1552
els	-1553
▁international	-1554
▁Br	-1555
▁areas	-1556
▁Cal	-1557
▁criminal	-1558
uation	-1559
igr	-1560
cil	-1561
▁buil	-1562
▁took	-1563
▁meeting	-1564
▁esp	-1565
gress	-1566
▁tak	-1567
▁expected	-1568
▁respect	-1569
▁never	-1570
▁15	-1571
▁threat	-1572
▁received	-1573
cement	-1574
ock	-1575
▁Malacañang	-1576
▁agree	-1577
▁continue	-1578
▁susp	-1579
ees	-1580
pped	-1581
▁event	-1582
aker	-1583
▁reb	-1584
▁If	-1585
▁charges	-1586
ata	-1587
oot	-1588
▁speech	-1589
ferent	-1590
▁International	-1591
▁Bureau	-1592
ala	-1593
ics	-1594
▁showed	-1595
▁budget	-1596
▁each	-1597
▁assist	-1598
▁suspect	-1599
▁Sunday	-1600
▁celebr	-1601
ister	-1602
mbuds	-1603
▁host	-1604
▁better	-1605
▁immediate	-1606
be	-1607
▁personal	-1608
itor	-1609
▁val	-1610
▁seem	-1611
▁polic	-1612
▁position	-1613
mbudsman	-1614
▁jud	-1615
ash	-1616
▁mass	-1617
▁Christ	-1618
ising	-1619
▁hour	-1620
▁others	-1621
▁especially	-1622
▁always	-1623
FP	-1624
▁place	-1625
▁June	-1626
ana	-1627
▁spokesperson	-1628
ati	-1629
They	-1630
▁lawy	-1631
▁lat	-1632
▁el	-1633
aily	-1634
▁clear	-1635
▁however	-1636
▁due	-1637
▁live	-1638
oms	-1639
▁States	-1640
▁care	-1641
DA	-1642
▁stop	-1643
▁legal	-1644
▁justice	-1645
▁anti	-1646
▁11	-1647
▁exc	-1648
▁killings	-1649
▁got	-1650
icial	-1651
viron	-1652
▁distr	-1653
▁Ind	-1654
thing	-1655
ination	-1656
unic	-1657
▁hearing	-1658
▁Co	-1659
▁land	-1660
nel	-1661
▁That	-1662
▁At	-1663
▁famili	-1664
vironment	-1665
por	-1666
▁lang	-1667
▁Party	-1668
▁page	-1669
BC	-1670
my	-1671
▁area	-1672
rending	-1673
stand	-1674
▁less	-1675
▁allegedly	-1676
▁different	-1677
▁American	-1678
▁best	-1679
▁sent	-1680
For	-1681
str	-1682
▁lot	-1683
▁protect	-1684
aturday	-1685
▁Ombudsman	-1686
▁old	-1687
ee	-1688
▁tra	-1689
▁interest	-1690
▁bur	-1691
iers	-1692
▁ordered	-1693
ero	-1694
▁Quezon	-1695
▁non	-1696
agement	-1697
nal	-1698
There	-1699
▁able	-1700
▁dest	-1701
mitted	-1702
▁Ed	-1703
ched	-1704
▁leader	-1705
▁News	-1706
vey	-1707
▁confir	-1708
▁Pacquiao	-1709
▁candidates	-1710
ean	-1711
▁Jo	-1712
▁somet	-1713
▁until	-1714
-1	-1715
▁agency	-1716
ortun	-1717
▁late	-1718
▁past	-1719
▁accused	-1720
▁Col	-1721
▁team	-1722
PA	-1723
iversity	-1724
▁lit	-1725
▁mod	-1726
▁Sur	-1727
▁keep	-1728
▁along	-1729
tervista	-1730
▁pen	-1731
trending	-1732
▁Saturday	-1733
▁dead	-1734
▁proposed	-1735
▁Altervista	-1736
Sen	-1737
illa	-1738
▁You	-1739
ension	-1740
▁service	-1741
▁Pinoytrending	-1742
▁might	-1743
▁left	-1744
aced	-1745
idents	-1746
orm	-1747
echn	-1748
▁lear	-1749
▁DO	-1750
▁estab	-1751
▁Gu	-1752
▁Ma	-1753
Al	-1754
▁join	-1755
ospital	-1756
▁too	-1757
erc	-1758
▁led	-1759
▁member	-1760
▁proper	-1761
▁private	-1762
▁Development	-1763
▁Constitution	-1764
▁strong	-1765
▁ens	-1766
sc	-1767
AT	-1768
aster	-1769
▁word	-1770
▁ko	-1771
▁following	-1772
▁Leni	-1773
▁based	-1774
Un	-1775
iding	-1776
▁vote	-1777
imate	-1778
log	-1779
iation	-1780
▁meas	-1781
of	-1782
▁bar	-1783
▁deal	-1784
▁poll	-1785
▁total	-1786
lec	-1787
▁gen	-1788
ories	-1789
undit	-1790
▁within	-1791
▁fun	-1792
▁petition	-1793
sh	-1794
▁water	-1795
rel	-1796
hers	-1797
▁sing	-1798
ulture	-1799
▁GRPundit	-1800
▁food	-1801
▁rice	-1802
▁below	-1803
▁Ang	-1804
▁poor	-1805
▁explain	-1806
▁Barangay	-1807
▁prep	-1808
▁docu	-1809
▁increase	-1810
▁went	-1811
▁neg	-1812
▁State	-1813
50	-1814
?”	-1815
▁Air	-1816
▁close	-1817
eg	-1818
▁making	-1819
▁prof	-1820
▁comment	-1821
▁home	-1822
▁full	-1823
▁Car	-1824
▁victims	-1825
▁posted	-1826
▁cost	-1827
▁corruption	-1828
▁equ	-1829
SA	-1830
za	-1831
▁class	-1832
1.	-1833
▁affect	-1834
▁families	-1835
ape	-1836
EN	-1837
▁farm	-1838
▁reason	-1839
▁mis	-1840
ibility	-1841
lev	-1842
▁Sant	-1843
▁using	-1844
▁believe	-1845
▁citizens	-1846
ify	-1847
▁community	-1848
▁inside	-1849
ela	-1850
atholic	-1851
▁consid	-1852
ides	-1853
▁Anton	-1854
▁having	-1855
▁reports	-1856
▁respons	-1857
gu	-1858
affic	-1859
▁Kore	-1860
▁July	-1861
▁short	-1862
ita	-1863
incial	-1864
ournal	-1865
ances	-1866
▁Ben	-1867
▁South	-1868
▁wanted	-1869
▁instead	-1870
▁whether	-1871
crib	-1872
▁pus	-1873
▁cho	-1874
▁gun	-1875
▁conv	-1876
▁tour	-1877
▁house	-1878
ny	-1879
encies	-1880
▁hon	-1881
ceed	-1882
▁deb	-1883
▁bring	-1884
oub	-1885
▁term	-1886
gy	-1887
▁didn	-1888
irre	-1889
▁Coun	-1890
▁educ	-1891
▁supposed	-1892
itness	-1893
▁Catholic	-1894
ology	-1895
▁play	-1896
▁things	-1897
▁Te	-1898
▁gl	-1899
▁imm	-1900
▁sk	-1901
ival	-1902
▁once	-1903
▁thought	-1904
most	-1905
▁appe	-1906
▁company	-1907
▁face	-1908
▁Oct	-1909
duc	-1910
▁ni	-1911
ners	-1912
▁near	-1913
▁repl	-1914
▁hol	-1915
▁Donald	-1916
isl	-1917
▁mo	-1918
▁wa	-1919
▁fav	-1920
▁III	-1921
▁message	-1922
▁Sep	-1923
▁Presidential	-1924
▁arr	-1925
▁Antonio	-1926
arc	-1927
ights	-1928
▁vice	-1929
▁secretary	-1930
ko	-1931
▁travel	-1932
ivid	-1933
▁body	-1934
▁Cab	-1935
HE	-1936
▁chall	-1937
iverse	-1938
selves	-1939
▁par	-1940
inese	-1941
▁Direct	-1942
ined	-1943
▁car	-1944
ccess	-1945
iously	-1946
▁Assoc	-1947
▁Wor	-1948
▁init	-1949
▁13	-1950
▁Represent	-1951
alo	-1952
President	-1953
▁officers	-1954
▁Ob	-1955
▁later	-1956
201	-1957
▁mark	-1958
▁comple	-1959
▁hig	-1960
▁complaint	-1961
hern	-1962
▁So	-1963
af	-1964
oss	-1965
▁Res	-1966
▁signed	-1967
▁funds	-1968
comment	-1969
▁started	-1970
▁Nor	-1971
ES	-1972
yn	-1973
▁few	-1974
▁hard	-1975
▁hist	-1976
▁respond	-1977
▁There	-1978
IN	-1979
yan	-1980
▁Med	-1981
▁inter	-1982
▁issues	-1983
omb	-1984
iety	-1985
▁done	-1986
▁Vis	-1987
▁projects	-1988
▁bre	-1989
▁claimed	-1990
ilo	-1991
▁possible	-1992
▁recently	-1993
▁away	-1994
▁laun	-1995
▁self	-1996
by	-1997
▁18	-1998
▁stre	-1999
▁Sal	-2000
▁Rosa	-2001
▁hope	-2002
▁product	-2003
uted	-2004
▁sal	-2005
▁students	-2006
ging	-2007
▁enc	-2008
▁hold	-2009
itional	-2010
▁services	-2011
▁lo	-2012
▁says	-2013
▁supporters	-2014
2.	-2015
augh	-2016
▁traffic	-2017
indi	-2018
▁evidence	-2019
▁cover	-2020
aut	-2021
MA	-2022
▁Jap	-2023
▁eng	-2024
▁ren	-2025
▁final	-2026
▁impro	-2027
▁martial	-2028
lus	-2029
▁spec	-2030
CC	-2031
▁doing	-2032
▁di	-2033
What	-2034
▁special	-2035
▁resul	-2036
▁gave	-2037
ares	-2038
▁carr	-2039
ivision	-2040
▁released	-2041
▁building	-2042
▁soldiers	-2043
eter	-2044
urned	-2045
ilities	-2046
▁Chinese	-2047
vest	-2048
▁address	-2049
▁qual	-2050
▁Director	-2051
inet	-2052
1,	-2053
iment	-2054
At	-2055
▁behind	-2056
here	-2057
ature	-2058
ulation	-2059
▁ap	-2060
urther	-2061
▁development	-2062
irc	-2063
▁allowed	-2064
▁On	-2065
▁198	-2066
▁conn	-2067
aled	-2068
▁youn	-2069
CO	-2070
▁sw	-2071
▁taken	-2072
▁nothing	-2073
▁25	-2074
ester	-2075
▁command	-2076
rown	-2077
▁matter	-2078
▁involved	-2079
wa	-2080
▁seen	-2081
▁enough	-2082
▁arrested	-2083
10	-2084
ont	-2085
anga	-2086
▁himself	-2087
airs	-2088
ored	-2089
ability	-2090
▁disp	-2091
appler	-2092
▁const	-2093
iñ	-2094
ruction	-2095
▁despite	-2096
▁Sh	-2097
▁prosec	-2098
▁something	-2099
Ch	-2100
umb	-2101
▁online	-2102
▁economic	-2103
▁14	-2104
▁ans	-2105
ession	-2106
▁immediately	-2107
▁worth	-2108
▁provide	-2109
overed	-2110
▁2015	-2111
▁region	-2112
▁Mak	-2113
▁var	-2114
▁extr	-2115
▁simp	-2116
▁coming	-2117
ification	-2118
EL	-2119
▁grow	-2120
▁civ	-2121
oming	-2122
3.	-2123
▁view	-2124
▁Luzon	-2125
▁director	-2126
iod	-2127
▁pat	-2128
▁veh	-2129
▁officer	-2130
ovember	-2131
▁authorities	-2132
ebu	-2133
▁lawm	-2134
ividual	-2135
pe	-2136
ening	-2137
▁father	-2138
while	-2139
▁general	-2140
▁agencies	-2141
▁sure	-2142
▁needs	-2143
▁ground	-2144
▁popular	-2145
▁Universe	-2146
ago	-2147
▁sum	-2148
▁Roque	-2149
▁noted	-2150
wide	-2151
▁March	-2152
uary	-2153
ado	-2154
▁denied	-2155
▁resolution	-2156
aya	-2157
▁son	-2158
▁Bo	-2159
▁declared	-2160
era	-2161
▁hours	-2162
▁design	-2163
ural	-2164
▁operation	-2165
omelec	-2166
arm	-2167
▁1,	-2168
ots	-2169
▁govern	-2170
▁running	-2171
▁November	-2172
▁ty	-2173
▁comments	-2174
▁occ	-2175
▁dism	-2176
▁wants	-2177
uck	-2178
▁third	-2179
▁legisl	-2180
▁witness	-2181
▁Net	-2182
BI	-2183
▁happened	-2184
▁controvers	-2185
gin	-2186
▁16	-2187
▁award	-2188
▁great	-2189
▁became	-2190
akes	-2191
▁sol	-2192
▁activities	-2193
----------------	-2194
fer	-2195
▁individual	-2196
akers	-2197
▁policy	-2198
▁actually	-2199
▁resign	-2200
▁University	-2201
inking	-2202
eat	-2203
tp	-2204
▁deter	-2205
aries	-2206
▁Min	-2207
▁success	-2208
▁reve	-2209
▁suff	-2210
▁level	-2211
int	-2212
▁grant	-2213
▁discussion	-2214
reno	-2215
side	-2216
ither	-2217
▁result	-2218
▁Asia	-2219
▁road	-2220
ential	-2221
▁friends	-2222
anda	-2223
▁Center	-2224
30	-2225
ED	-2226
▁lar	-2227
▁sect	-2228
▁survey	-2229
//	-2230
▁employees	-2231
ardo	-2232
▁vir	-2233
▁expl	-2234
ically	-2235
▁shall	-2236
▁expressed	-2237
That	-2238
▁2018	-2239
://	-2240
▁journal	-2241
▁hospital	-2242
▁important	-2243
hab	-2244
▁course	-2245
▁hom	-2246
▁story	-2247
▁whose	-2248
▁mean	-2249
▁propos	-2250
▁ca	-2251
oren	-2252
▁dam	-2253
▁marr	-2254
ternet	-2255
▁brought	-2256
NA	-2257
inas	-2258
▁lawyer	-2259
▁Ph	-2260
ilar	-2261
▁Aug	-2262
alled	-2263
▁trad	-2264
▁wrong	-2265
ift	-2266
ober	-2267
▁eas	-2268
▁find	-2269
▁i	-2270
▁favor	-2271
▁foc	-2272
▁cust	-2273
▁point	-2274
▁Rappler	-2275
ij	-2276
▁pan	-2277
lim	-2278
pril	-2279
philippin	-2280
▁kid	-2281
▁tell	-2282
▁means	-2283
▁Bar	-2284
ogn	-2285
unt	-2286
▁pract	-2287
▁urged	-2288
▁vac	-2289
▁opposition	-2290
ayas	-2291
▁hit	-2292
3,	-2293
FA	-2294
yes	-2295
pted	-2296
▁ensure	-2297
▁conducted	-2298
ones	-2299
▁latest	-2300
igan	-2301
▁further	-2302
▁relations	-2303
anch	-2304
▁themselves	-2305
▁si	-2306
▁compan	-2307
▁working	-2308
▁bank	-2309
▁photo	-2310
▁lim	-2311
▁Cebu	-2312
▁17	-2313
▁box	-2314
▁People	-2315
▁January	-2316
▁Cr	-2317
ached	-2318
▁laws	-2319
▁North	-2320
cember	-2321
din	-2322
hold	-2323
▁turn	-2324
▁April	-2325
▁promot	-2326
▁Dr	-2327
arez	-2328
ources	-2329
▁establish	-2330
.’	-2331
IA	-2332
▁infl	-2333
▁lost	-2334
▁super	-2335
▁Bal	-2336
▁Feb	-2337
aga	-2338
▁Il	-2339
▁true	-2340
ederal	-2341
ecess	-2342
▁December	-2343
▁request	-2344
ih	-2345
ici	-2346
owever	-2347
▁period	-2348
▁Bu	-2349
▁tro	-2350
▁personnel	-2351
▁penal	-2352
▁killing	-2353
▁respon	-2354
▁mov	-2355
arent	-2356
▁situation	-2357
ma	-2358
▁Em	-2359
ador	-2360
▁Pang	-2361
▁ask	-2362
▁sep	-2363
▁Obama	-2364
PP	-2365
▁ide	-2366
▁God	-2367
atory	-2368
▁techn	-2369
▁Visayas	-2370
esterday	-2371
▁assistance	-2372
▁Bat	-2373
▁major	-2374
▁Russ	-2375
▁failed	-2376
▁suspects	-2377
▁confirmed	-2378
▁conference	-2379
pro	-2380
▁Esp	-2381
▁leave	-2382
▁taking	-2383
▁certain	-2384
anger	-2385
ounts	-2386
DO	-2387
alf	-2388
▁Fer	-2389
tered	-2390
▁describ	-2391
izen	-2392
▁Agu	-2393
▁Bang	-2394
▁fake	-2395
aps	-2396
ustry	-2397
▁Representatives	-2398
ke	-2399
raft	-2400
▁All	-2401
izing	-2402
▁thous	-2403
▁return	-2404
▁various	-2405
▁ago	-2406
▁Council	-2407
▁particular	-2408
▁environment	-2409
FW	-2410
▁100	-2411
▁App	-2412
▁Ram	-2413
▁aud	-2414
ively	-2415
▁Auth	-2416
▁stat	-2417
▁incident	-2418
▁Group	-2419
▁particip	-2420
▁appear	-2421
hib	-2422
▁fa	-2423
http	-2424
rap	-2425
▁October	-2426
▁elected	-2427
each	-2428
▁Islam	-2429
▁times	-2430
▁watch	-2431
ony	-2432
work	-2433
▁Leila	-2434
▁executive	-2435
yc	-2436
lor	-2437
4.	-2438
▁separ	-2439
▁residents	-2440
SO	-2441
idency	-2442
▁World	-2443
▁source	-2444
▁Day	-2445
▁early	-2446
ittee	-2447
tember	-2448
▁ruling	-2449
▁Dem	-2450
▁concern	-2451
ER	-2452
Tr	-2453
ipal	-2454
▁hous	-2455
▁regard	-2456
▁condition	-2457
over	-2458
▁tar	-2459
▁stay	-2460
▁lives	-2461
▁produ	-2462
▁senators	-2463
When	-2464
▁almost	-2465
▁tre	-2466
aught	-2467
▁Vill	-2468
▁agreement	-2469
win	-2470
▁Mag	-2471
▁thing	-2472
▁Sy	-2473
▁Pan	-2474
▁answ	-2475
aughter	-2476
▁longer	-2477
▁Liberal	-2478
▁mor	-2479
▁bat	-2480
▁What	-2481
real	-2482
▁upon	-2483
▁Soc	-2484
▁Sand	-2485
2,	-2486
▁Corp	-2487
▁efforts	-2488
▁perform	-2489
▁board	-2490
▁action	-2491
ID	-2492
▁decided	-2493
▁Health	-2494
▁trying	-2495
▁include	-2496
portation	-2497
You	-2498
▁pur	-2499
ental	-2500
atural	-2501
ety	-2502
▁congress	-2503
ades	-2504
read	-2505
ask	-2506
▁fir	-2507
▁recogn	-2508
▁Inc	-2509
▁labor	-2510
▁Maria	-2511
▁expect	-2512
▁inj	-2513
And	-2514
abu	-2515
pping	-2516
▁Norte	-2517
4,	-2518
una	-2519
ayet	-2520
▁Mus	-2521
▁toget	-2522
▁woman	-2523
▁approved	-2524
▁together	-2525
Mar	-2526
under	-2527
▁wife	-2528
epend	-2529
▁soon	-2530
erring	-2531
ayetano	-2532
philippines	-2533
▁identified	-2534
▁understand	-2535
esty	-2536
▁crime	-2537
▁enfor	-2538
EC	-2539
itive	-2540
▁trust	-2541
lection	-2542
ream	-2543
▁sug	-2544
▁talk	-2545
stitutional	-2546
▁prices	-2547
▁society	-2548
To	-2549
avy	-2550
ule	-2551
reedom	-2552
▁telev	-2553
▁Authority	-2554
oke	-2555
▁comes	-2556
▁trade	-2557
▁September	-2558
▁circ	-2559
▁named	-2560
ield	-2561
▁lack	-2562
agal	-2563
▁Makati	-2564
ats	-2565
▁Army	-2566
▁dismiss	-2567
▁Pilip	-2568
▁Region	-2569
uev	-2570
▁companies	-2571
▁Trans	-2572
▁prevent	-2573
▁Sereno	-2574
ium	-2575
▁kind	-2576
6.	-2577
▁tem	-2578
▁force	-2579
▁forces	-2580
▁Do	-2581
▁talks	-2582
▁Hon	-2583
▁fut	-2584
▁develop	-2585
▁Administr	-2586
▁regional	-2587
ises	-2588
royo	-2589
▁low	-2590
venue	-2591
eanwhile	-2592
▁mind	-2593
▁La	-2594
▁applic	-2595
▁education	-2596
igration	-2597
▁bad	-2598
▁calling	-2599
▁Government	-2600
IS	-2601
▁bid	-2602
▁Cast	-2603
▁avail	-2604
▁Comment	-2605
OR	-2606
erate	-2607
▁brief	-2608
▁Yellow	-2609
omin	-2610
idered	-2611
▁airport	-2612
▁department	-2613
▁Pa	-2614
▁Sc	-2615
▁THE	-2616
osing	-2617
▁Church	-2618
▁farmers	-2619
▁Daily	-2620
▁affected	-2621
▁opportun	-2622
▁small	-2623
▁Republican	-2624
ida	-2625
▁ple	-2626
itter	-2627
▁jail	-2628
▁side	-2629
▁Francisco	-2630
ticle	-2631
▁financ	-2632
den	-2633
▁Mat	-2634
▁dev	-2635
▁hop	-2636
▁accept	-2637
▁entire	-2638
▁brother	-2639
▁TV	-2640
▁blog	-2641
▁challen	-2642
▁mand	-2643
eatured	-2644
▁reform	-2645
▁ka	-2646
otto	-2647
nd	-2648
Noy	-2649
inces	-2650
varez	-2651
udicial	-2652
▁letter	-2653
dinand	-2654
▁concer	-2655
▁release	-2656
▁Featured	-2657
▁Mo	-2658
▁contrib	-2659
▁mention	-2660
▁passeng	-2661
▁included	-2662
▁film	-2663
bs	-2664
▁nag	-2665
imentel	-2666
▁considered	-2667
ris	-2668
▁und	-2669
bayan	-2670
▁majority	-2671
▁gre	-2672
▁line	-2673
action	-2674
▁votes	-2675
▁Forces	-2676
▁rad	-2677
▁feel	-2678
▁cited	-2679
na	-2680
▁Cabinet	-2681
opez	-2682
asing	-2683
While	-2684
▁doub	-2685
▁sex	-2686
▁treat	-2687
▁remains	-2688
ode	-2689
ude	-2690
▁Par	-2691
cha	-2692
▁heart	-2693
▁response	-2694
No	-2695
urt	-2696
quir	-2697
ayo	-2698
isc	-2699
rents	-2700
▁hear	-2701
▁mother	-2702
▁Tw	-2703
▁gay	-2704
▁Cust	-2705
▁miss	-2706
▁phone	-2707
▁rehab	-2708
Meanwhile	-2709
ably	-2710
time	-2711
▁mid	-2712
isting	-2713
▁policemen	-2714
inan	-2715
▁pointed	-2716
ump	-2717
▁CO	-2718
▁mal	-2719
▁joint	-2720
▁attend	-2721
▁programs	-2722
▁mur	-2723
▁wal	-2724
▁vill	-2725
▁asking	-2726
▁demand	-2727
▁Ferdinand	-2728
val	-2729
ames	-2730
▁cred	-2731
▁thousands	-2732
AR	-2733
▁hot	-2734
inary	-2735
▁Join	-2736
▁warr	-2737
▁serve	-2738
irl	-2739
ury	-2740
▁twe	-2741
▁Camp	-2742
▁future	-2743
With	-2744
▁blood	-2745
▁share	-2746
▁control	-2747
▁organiz	-2748
page	-2749
based	-2750
lished	-2751
▁documents	-2752
▁died	-2753
▁amount	-2754
▁giving	-2755
ney	-2756
ters	-2757
▁cop	-2758
arian	-2759
▁Maute	-2760
▁history	-2761
▁previous	-2762
ocal	-2763
▁wel	-2764
ember	-2765
▁cause	-2766
ins	-2767
▁provincial	-2768
9,	-2769
Ar	-2770
▁seems	-2771
ructure	-2772
uses	-2773
▁pri	-2774
▁medical	-2775
obal	-2776
▁love	-2777
uled	-2778
▁Cap	-2779
▁50	-2780
▁writ	-2781
▁young	-2782
ery	-2783
▁market	-2784
llig	-2785
▁Noy	-2786
▁Serv	-2787
▁chang	-2788
▁Uson	-2789
aft	-2790
bay	-2791
pet	-2792
▁Im	-2793
▁Inter	-2794
▁truth	-2795
▁believed	-2796
▁statements	-2797
acson	-2798
▁ever	-2799
▁barangay	-2800
AL	-2801
auty	-2802
iction	-2803
igation	-2804
▁impeach	-2805
▁yesterday	-2806
▁ay	-2807
▁vol	-2808
phoon	-2809
▁results	-2810
▁reportedly	-2811
ruz	-2812
▁ako	-2813
▁problems	-2814
▁staff	-2815
▁democr	-2816
olo	-2817
▁AFP	-2818
▁ran	-2819
▁saw	-2820
▁atte	-2821
▁doesn	-2822
▁rules	-2823
▁explained	-2824
iano	-2825
▁abs	-2826
▁role	-2827
▁appoint	-2828
▁distrib	-2829
▁questions	-2830
AN	-2831
▁199	-2832
▁Mac	-2833
▁claims	-2834
arch	-2835
▁art	-2836
ently	-2837
iance	-2838
▁fear	-2839
▁orig	-2840
▁teac	-2841
▁surren	-2842
▁Comelec	-2843
Mr	-2844
asa	-2845
▁Spe	-2846
▁boy	-2847
▁Grace	-2848
▁Committee	-2849
▁file	-2850
▁Assist	-2851
▁Regional	-2852
▁Islamic	-2853
▁tit	-2854
▁allegations	-2855
mpt	-2856
▁Hol	-2857
aded	-2858
▁saf	-2859
▁served	-2860
▁admitted	-2861
▁daughter	-2862
hn	-2863
After	-2864
▁America	-2865
▁anything	-2866
▁toward	-2867
▁Asian	-2868
▁politicians	-2869
using	-2870
▁target	-2871
hest	-2872
▁Def	-2873
ruary	-2874
▁require	-2875
▁Pl	-2876
▁television	-2877
▁remain	-2878
,’	-2879
▁needed	-2880
▁book	-2881
▁coop	-2882
▁politics	-2883
▁price	-2884
▁recomm	-2885
▁pack	-2886
▁words	-2887
ILF	-2888
▁ST	-2889
uing	-2890
▁bul	-2891
▁sat	-2892
aging	-2893
remon	-2894
▁PH	-2895
blog	-2896
▁step	-2897
De	-2898
inton	-2899
strada	-2900
▁accounts	-2901
▁Can	-2902
▁aut	-2903
ias	-2904
▁PD	-2905
▁purs	-2906
ume	-2907
/201	-2908
▁whole	-2909
gency	-2910
▁units	-2911
▁federal	-2912
▁Be	-2913
▁regular	-2914
▁Labor	-2915
▁someone	-2916
▁emer	-2917
▁hindi	-2918
esc	-2919
▁provinces	-2920
▁leadership	-2921
▁February	-2922
▁revealed	-2923
▁provision	-2924
▁pag	-2925
▁Japan	-2926
▁pageant	-2927
▁subject	-2928
▁committed	-2929
PO	-2930
▁ball	-2931
ounded	-2932
uge	-2933
▁OFW	-2934
river	-2935
▁rebels	-2936
▁voters	-2937
▁finally	-2938
ilon	-2939
utes	-2940
▁Sea	-2941
lands	-2942
▁destro	-2943
arry	-2944
band	-2945
ills	-2946
▁front	-2947
▁motor	-2948
▁pot	-2949
▁sched	-2950
▁island	-2951
▁Cayetano	-2952
▁rehabilit	-2953
bed	-2954
▁...	-2955
▁Jes	-2956
▁capital	-2957
realphilippines	-2958
going	-2959
▁presidency	-2960
ordon	-2961
▁maint	-2962
▁improve	-2963
▁outside	-2964
▁ceremon	-2965
▁similar	-2966
▁paid	-2967
▁port	-2968
▁ship	-2969
▁August	-2970
▁safety	-2971
▁getting	-2972
▁parents	-2973
▁PC	-2974
▁obs	-2975
▁Drug	-2976
icated	-2977
▁negot	-2978
▁rally	-2979
ront	-2980
▁fish	-2981
▁Armed	-2982
▁common	-2983
ropri	-2984
▁rule	-2985
▁Lopez	-2986
▁light	-2987
▁lawmakers	-2988
▁Airport	-2989
▁Association	-2990
▁shows	-2991
▁Rom	-2992
▁begin	-2993
irth	-2994
▁Je	-2995
▁lic	-2996
mission	-2997
▁access	-2998
▁schools	-2999
▁cance	-3000
autista	-3001
▁Social	-3002
Now	-3003
eks	-3004
▁rate	-3005
▁warned	-3006
oid	-3007
ustr	-3008
▁dict	-3009
During	-3010
▁plans	-3011
▁financial	-3012
▁answer	-3013
▁netizens	-3014
▁bag	-3015
▁sto	-3016
ando	-3017
▁Agr	-3018
▁passed	-3019
unicipal	-3020
▁proceed	-3021
sam	-3022
▁Ac	-3023
rom	-3024
▁Carl	-3025
▁described	-3026
6,	-3027
▁Er	-3028
ella	-3029
rect	-3030
▁lib	-3031
esman	-3032
▁turned	-3033
▁Sout	-3034
▁seven	-3035
▁announcement	-3036
▁Speaker	-3037
▁looking	-3038
▁referring	-3039
aud	-3040
▁UN	-3041
aces	-3042
amar	-3043
▁agreed	-3044
apol	-3045
▁sche	-3046
▁webs	-3047
ecause	-3048
RT	-3049
idel	-3050
rast	-3051
estern	-3052
▁victim	-3053
▁implementation	-3054
ane	-3055
imum	-3056
▁cal	-3057
change	-3058
▁honor	-3059
▁center	-3060
▁living	-3061
▁Clinton	-3062
SW	-3063
▁Democr	-3064
▁inquir	-3065
ducation	-3066
▁li	-3067
chie	-3068
▁Palace	-3069
ateg	-3070
▁mult	-3071
▁fall	-3072
▁chance	-3073
▁collect	-3074
ender	-3075
▁data	-3076
bo	-3077
do	-3078
ases	-3079
▁safe	-3080
▁morning	-3081
EO	-3082
St	-3083
▁Alvarez	-3084
PC	-3085
no	-3086
oud	-3087
▁Korea	-3088
▁concerned	-3089
icult	-3090
▁adding	-3091
▁Rev	-3092
▁buy	-3093
▁Cruz	-3094
aration	-3095
▁driver	-3096
amed	-3097
▁emb	-3098
▁kil	-3099
ences	-3100
▁redu	-3101
▁either	-3102
▁counter	-3103
▁charged	-3104
▁red	-3105
▁sil	-3106
▁vers	-3107
samoro	-3108
ush	-3109
▁Say	-3110
ari	-3111
uan	-3112
▁cut	-3113
▁pes	-3114
▁pray	-3115
▁check	-3116
”.	-3117
▁everyone	-3118
▁scheduled	-3119
▁individuals	-3120
come	-3121
▁Iloc	-3122
▁rese	-3123
▁text	-3124
▁shot	-3125
▁proposal	-3126
▁Supt	-3127
▁capt	-3128
▁photos	-3129
▁John	-3130
▁Pope	-3131
▁clean	-3132
▁across	-3133
▁little	-3134
▁weeks	-3135
▁industry	-3136
▁suspected	-3137
▁nationwide	-3138
oll	-3139
adem	-3140
▁independ	-3141
▁cash	-3142
▁half	-3143
▁beauty	-3144
▁necess	-3145
▁penalty	-3146
7,	-3147
8,	-3148
iri	-3149
reg	-3150
like	-3151
▁Abu	-3152
▁Ger	-3153
formed	-3154
▁products	-3155
.)	-3156
uk	-3157
arth	-3158
▁Val	-3159
▁Pimentel	-3160
▁construction	-3161
▁Lag	-3162
▁ful	-3163
▁often	-3164
▁particularly	-3165
earch	-3166
ployment	-3167
IC	-3168
pir	-3169
▁encour	-3170
▁provided	-3171
▁separate	-3172
iliz	-3173
▁Aguirre	-3174
▁24	-3175
aling	-3176
aming	-3177
▁clos	-3178
▁whom	-3179
ensive	-3180
▁Force	-3181
▁vehicles	-3182
▁Americans	-3183
▁Executive	-3184
▁Invest	-3185
▁suggest	-3186
▁chairman	-3187
▁fighting	-3188
OC	-3189
oday	-3190
▁hus	-3191
▁coup	-3192
BS	-3193
rd	-3194
seas	-3195
▁surpr	-3196
igno	-3197
▁Education	-3198
▁currently	-3199
rastructure	-3200
▁Am	-3201
▁Las	-3202
▁Customs	-3203
▁critics	-3204
▁appointed	-3205
pre	-3206
wan	-3207
▁spokesman	-3208
▁achie	-3209
▁Eu	-3210
▁One	-3211
isher	-3212
However	-3213
▁Public	-3214
▁higher	-3215
▁Division	-3216
uris	-3217
▁key	-3218
enses	-3219
▁Bill	-3220
▁birth	-3221
▁Estrada	-3222
▁Nations	-3223
▁Stories	-3224
▁build	-3225
▁Benigno	-3226
▁profess	-3227
iage	-3228
isted	-3229
▁happen	-3230
▁relig	-3231
ager	-3232
imin	-3233
lying	-3234
▁lord	-3235
erated	-3236
▁armed	-3237
▁debate	-3238
▁pub	-3239
fully	-3240
iated	-3241
▁Pat	-3242
▁terms	-3243
▁additional	-3244
SS	-3245
▁Juan	-3246
▁bomb	-3247
elfare	-3248
▁ready	-3249
▁tried	-3250
▁Central	-3251
▁measure	-3252
▁terrorist	-3253
▁commission	-3254
ña	-3255
▁ut	-3256
▁amb	-3257
▁Human	-3258
▁consum	-3259
▁experience	-3260
arb	-3261
▁21	-3262
aper	-3263
▁Bor	-3264
9.	-3265
MM	-3266
RO	-3267
▁Bayan	-3268
▁pork	-3269
▁purp	-3270
▁quick	-3271
▁review	-3272
▁sources	-3273
▁z	-3274
mar	-3275
▁Her	-3276
Under	-3277
though	-3278
▁displ	-3279
▁LP	-3280
▁Pas	-3281
▁mom	-3282
▁dist	-3283
00,000	-3284
▁leading	-3285
▁Bangsamoro	-3286
wor	-3287
Last	-3288
▁meant	-3289
▁biggest	-3290
izal	-3291
lled	-3292
▁Let	-3293
▁hero	-3294
▁prison	-3295
▁website	-3296
▁Management	-3297
.‘	-3298
ires	-3299
▁study	-3300
▁raised	-3301
▁simply	-3302
▁esc	-3303
▁sust	-3304
▁Distr	-3305
▁impeachment	-3306
▁kung	-3307
▁destroy	-3308
ley	-3309
▁asse	-3310
/0	-3311
now	-3312
isk	-3313
inosa	-3314
▁Bong	-3315
▁Mart	-3316
ials	-3317
reng	-3318
▁Mocha	-3319
▁connection	-3320
ez	-3321
▁York	-3322
▁purch	-3323
BL	-3324
ueva	-3325
▁poin	-3326
▁Interior	-3327
▁required	-3328
▁violation	-3329
HR	-3330
▁inquiry	-3331
▁partners	-3332
7.	-3333
▁El	-3334
▁unf	-3335
▁Angel	-3336
▁speak	-3337
▁yellow	-3338
lligence	-3339
▁else	-3340
▁senior	-3341
▁grad	-3342
▁seeking	-3343
ott	-3344
▁Sotto	-3345
ounding	-3346
▁charact	-3347
ico	-3348
▁40	-3349
▁single	-3350
▁benefits	-3351
5.	-3352
NC	-3353
ani	-3354
ample	-3355
▁tweet	-3356
▁opin	-3357
▁taxes	-3358
▁barrel	-3359
▁charge	-3360
▁Pilipinas	-3361
▁White	-3362
▁advoc	-3363
▁itself	-3364
▁Ale	-3365
▁comb	-3366
▁passengers	-3367
▁rehabilitation	-3368
Ph	-3369
▁ill	-3370
undred	-3371
▁reach	-3372
▁sector	-3373
▁husband	-3374
▁complete	-3375
upp	-3376
▁Anti	-3377
▁persons	-3378
▁.	-3379
▁His	-3380
where	-3381
▁Board	-3382
▁graft	-3383
orthern	-3384
16	-3385
body	-3386
emor	-3387
▁filing	-3388
▁receive	-3389
▁age	-3390
▁Europ	-3391
▁caught	-3392
▁troops	-3393
dr	-3394
ali	-3395
▁basic	-3396
PD	-3397
dle	-3398
uit	-3399
▁prohib	-3400
▁Martial	-3401
▁contest	-3402
!”	-3403
▁Fore	-3404
▁influ	-3405
▁article	-3406
▁express	-3407
pposition	-3408
atin	-3409
arter	-3410
▁fans	-3411
▁break	-3412
▁happy	-3413
arently	-3414
▁Castro	-3415
▁warrant	-3416
ading	-3417
unications	-3418
lin	-3419
ello	-3420
ming	-3421
rowd	-3422
▁kas	-3423
ishop	-3424
itation	-3425
▁Lacson	-3426
▁motion	-3427
▁attention	-3428
▁Manny	-3429
▁eight	-3430
▁showing	-3431
▁marriage	-3432
▁terrorists	-3433
ograp	-3434
▁Chair	-3435
ultural	-3436
▁compet	-3437
lections	-3438
▁Bautista	-3439
▁prosecut	-3440
▁Di	-3441
▁Bas	-3442
ordin	-3443
erve	-3444
▁NPA	-3445
▁fig	-3446
▁Leon	-3447
inance	-3448
▁serious	-3449
▁infrastructure	-3450
amas	-3451
▁Special	-3452
▁freedom	-3453
▁District	-3454
▁transfer	-3455
Some	-3456
rote	-3457
ties	-3458
▁princ	-3459
▁radio	-3460
▁murder	-3461
▁defense	-3462
),”	-3463
▁oust	-3464
▁rather	-3465
▁attacks	-3466
hol	-3467
mas	-3468
▁Ge	-3469
▁er	-3470
▁pun	-3471
▁Prov	-3472
▁mater	-3473
▁mission	-3474
ader	-3475
lege	-3476
▁Eng	-3477
▁lin	-3478
▁girl	-3479
▁Rights	-3480
▁relationship	-3481
Am	-3482
▁West	-3483
▁First	-3484
▁basis	-3485
▁consult	-3486
▁launched	-3487
ugg	-3488
▁Ilocos	-3489
▁diff	-3490
▁daily	-3491
▁criticism	-3492
tiver	-3493
▁Dela	-3494
8.	-3495
▁compl	-3496
aban	-3497
ails	-3498
orter	-3499
▁Sara	-3500
▁flood	-3501
▁voted	-3502
tiveros	-3503
▁briefing	-3504
▁management	-3505
One	-3506
▁flag	-3507
▁Santos	-3508
▁danger	-3509
▁sought	-3510
▁Gen	-3511
▁Rizal	-3512
acay	-3513
aving	-3514
▁2016.	-3515
▁avoid	-3516
Ed	-3517
▁Qu	-3518
acan	-3519
▁bor	-3520
▁fair	-3521
▁shoot	-3522
▁Gordon	-3523
▁states	-3524
▁Twitter	-3525
▁natural	-3526
ENR	-3527
▁BI	-3528
anar	-3529
arily	-3530
▁exam	-3531
▁supply	-3532
▁Program	-3533
ept	-3534
pio	-3535
▁plant	-3536
▁protection	-3537
AC	-3538
enn	-3539
uff	-3540
aran	-3541
▁yung	-3542
▁2016,	-3543
▁panel	-3544
▁disapp	-3545
ajudicial	-3546
iant	-3547
vere	-3548
wise	-3549
▁lif	-3550
ately	-3551
▁MILF	-3552
▁ones	-3553
▁Loren	-3554
▁heard	-3555
▁economy	-3556
▁controversial	-3557
cial	-3558
▁Bagu	-3559
▁site	-3560
▁discl	-3561
▁sense	-3562
▁criticized	-3563
▁LG	-3564
▁faith	-3565
▁names	-3566
▁continued	-3567
▁potential	-3568
▁everything	-3569
RC	-3570
Ro	-3571
▁detained	-3572
bid	-3573
iago	-3574
▁vacc	-3575
▁streng	-3576
▁learned	-3577
sy	-3578
Aquino	-3579
▁parts	-3580
▁difficult	-3581
."	-3582
ternal	-3583
▁exerc	-3584
▁initial	-3585
awa	-3586
ipl	-3587
road	-3588
▁Aff	-3589
ulations	-3590
22	-3591
PNP	-3592
list	-3593
▁Per	-3594
heast	-3595
▁organization	-3596
aly	-3597
▁Bay	-3598
▁Union	-3599
▁prove	-3600
▁Govern	-3601
▁Ronald	-3602
▁Russia	-3603
▁communities	-3604
ends	-3605
ashing	-3606
▁example	-3607
▁enj	-3608
▁pict	-3609
▁langu	-3610
▁Administration	-3611
▁2010	-3612
▁High	-3613
▁Jesus	-3614
▁Muslim	-3615
▁negoti	-3616
▁willing	-3617
cl	-3618
yaf	-3619
aters	-3620
apoles	-3621
▁focus	-3622
▁Sayyaf	-3623
▁conflic	-3624
▁reached	-3625
▁crowd	-3626
▁offer	-3627
▁spread	-3628
▁Internet	-3629
▁suspension	-3630
LE	-3631
hel	-3632
▁bal	-3633
▁try	-3634
icted	-3635
▁Mark	-3636
▁gone	-3637
▁forward	-3638
▁believes	-3639
▁consider	-3640
▁followed	-3641
awai	-3642
▁attr	-3643
▁para	-3644
▁cities	-3645
▁correct	-3646
Rob	-3647
▁SA	-3648
▁div	-3649
▁cell	-3650
▁repe	-3651
▁constitutional	-3652
▁makes	-3653
▁millions	-3654
▁authority	-3655
ona	-3656
qual	-3657
▁Million	-3658
▁je	-3659
fact	-3660
haps	-3661
verty	-3662
▁Sing	-3663
▁deep	-3664
▁youth	-3665
▁apolog	-3666
▁network	-3667
▁poverty	-3668
▁available	-3669
▁municipal	-3670
rew	-3671
▁sell	-3672
▁agric	-3673
▁income	-3674
▁offered	-3675
▁Espinosa	-3676
rs	-3677
▁annual	-3678
▁crimes	-3679
iganbayan	-3680
▁population	-3681
▁'	-3682
head	-3683
▁shabu	-3684
▁likely	-3685
▁actions	-3686
ests	-3687
▁nom	-3688
▁When	-3689
▁spot	-3690
▁vo	-3691
enced	-3692
igned	-3693
▁black	-3694
▁choice	-3695
▁council	-3696
▁responsible	-3697
▁hy	-3698
itude	-3699
ounds	-3700
▁approval	-3701
▁democracy	-3702
▁nak	-3703
▁trib	-3704
▁wrote	-3705
scud	-3706
▁stage	-3707
scudero	-3708
▁opportunity	-3709
▁parties	-3710
▁Sandiganbayan	-3711
▁VP	-3712
omar	-3713
▁Tag	-3714
▁dom	-3715
ampanga	-3716
▁deaths	-3717
▁facing	-3718
▁Affairs	-3719
icient	-3720
ael	-3721
rec	-3722
▁records	-3723
▁measures	-3724
▁Boracay	-3725
▁Yellowt	-3726
▁organizations	-3727
awan	-3728
▁Jud	-3729
▁fast	-3730
▁scam	-3731
▁lower	-3732
rev	-3733
▁Pag	-3734
▁argu	-3735
▁Peter	-3736
▁student	-3737
oul	-3738
ente	-3739
▁har	-3740
▁accom	-3741
▁Arroyo	-3742
▁replace	-3743
yte	-3744
▁amend	-3745
▁naman	-3746
NN	-3747
iled	-3748
Today	-3749
vement	-3750
▁wealth	-3751
▁granted	-3752
▁training	-3753
ha	-3754
che	-3755
▁1.	-3756
▁din	-3757
light	-3758
▁evac	-3759
astern	-3760
▁culture	-3761
▁inn	-3762
▁trip	-3763
▁trial	-3764
TC	-3765
vert	-3766
▁feat	-3767
▁jobs	-3768
▁owners	-3769
▁Hontiveros	-3770
isa	-3771
off	-3772
onom	-3773
▁Jim	-3774
▁idea	-3775
iversary	-3776
▁seek	-3777
▁Foreign	-3778
ami	-3779
▁pesos	-3780
▁Security	-3781
▁promised	-3782
▁teachers	-3783
May	-3784
▁To	-3785
hens	-3786
just	-3787
▁Not	-3788
▁Reyes	-3789
▁large	-3790
▁status	-3791
▁highest	-3792
▁session	-3793
Do	-3794
▁bloc	-3795
▁benefit	-3796
▁solution	-3797
RA	-3798
owed	-3799
▁Mex	-3800
▁Opposition	-3801
▁AS	-3802
lets	-3803
▁valid	-3804
▁global	-3805
▁joined	-3806
▁village	-3807
All	-3808
▁Kim	-3809
▁Media	-3810
▁Order	-3811
▁document	-3812
▁Assistant	-3813
mbass	-3814
▁Kris	-3815
imated	-3816
▁enjoy	-3817
million	-3818
▁civili	-3819
▁planning	-3820
oor	-3821
billion	-3822
▁monitor	-3823
▁Pampanga	-3824
▁submitted	-3825
iven	-3826
iforn	-3827
ustral	-3828
▁Leave	-3829
▁custom	-3830
ambo	-3831
▁Bel	-3832
▁goods	-3833
▁NoyNoy	-3834
▁tempor	-3835
▁institution	-3836
ipt	-3837
These	-3838
▁Local	-3839
▁hundred	-3840
▁deg	-3841
ously	-3842
▁Hall	-3843
▁Harry	-3844
▁heads	-3845
▁season	-3846
▁version	-3847
▁responsibility	-3848
▁foot	-3849
▁liter	-3850
▁series	-3851
▁termin	-3852
▁citizen	-3853
▁prepared	-3854
▁specific	-3855
▁mach	-3856
arters	-3857
omatic	-3858
▁caused	-3859
▁refused	-3860
▁celebration	-3861
icol	-3862
▁considering	-3863
▁60	-3864
acity	-3865
▁doct	-3866
ido	-3867
▁street	-3868
▁appointment	-3869
▁Investigation	-3870
▁anyone	-3871
▁church	-3872
▁resources	-3873
lig	-3874
sequ	-3875
owers	-3876
▁OFWs	-3877
▁resol	-3878
▁users	-3879
▁integr	-3880
secretary	-3881
▁violence	-3882
Re	-3883
mine	-3884
▁School	-3885
▁remind	-3886
▁appropri	-3887
▁challenge	-3888
▁2,	-3889
down	-3890
nesty	-3891
▁Moro	-3892
istered	-3893
▁Californ	-3894
astic	-3895
▁kidn	-3896
▁mining	-3897
▁assured	-3898
▁extrajudicial	-3899
▁acce	-3900
▁amid	-3901
▁resc	-3902
▁Under	-3903
▁observ	-3904
▁Christmas	-3905
dered	-3906
▁loss	-3907
▁accus	-3908
▁reject	-3909
▁exchange	-3910
ulu	-3911
▁white	-3912
▁Korean	-3913
▁offices	-3914
angg	-3915
▁emp	-3916
apano	-3917
▁launch	-3918
▁23	-3919
lines	-3920
IT	-3921
ena	-3922
▁CA	-3923
jomar	-3924
ource	-3925
▁reti	-3926
▁Hawai	-3927
stitute	-3928
▁bureau	-3929
▁retire	-3930
▁weather	-3931
▁Leg	-3932
▁race	-3933
▁above	-3934
▁existing	-3935
▁-	-3936
ayed	-3937
anese	-3938
apore	-3939
ledge	-3940
▁game	-3941
▁huge	-3942
▁surv	-3943
ishops	-3944
▁calls	-3945
▁failure	-3946
gar	-3947
ario	-3948
▁rat	-3949
estic	-3950
▁mere	-3951
▁pred	-3952
▁value	-3953
▁effort	-3954
▁herself	-3955
▁signific	-3956
ND	-3957
part	-3958
▁ant	-3959
▁prec	-3960
▁Defense	-3961
▁thoughts	-3962
aur	-3963
Well	-3964
more	-3965
▁pal	-3966
▁enter	-3967
▁Joseph	-3968
▁holding	-3969
▁Elections	-3970
ima	-3971
ran	-3972
ball	-3973
ikes	-3974
▁pain	-3975
verage	-3976
▁streets	-3977
▁transport	-3978
▁aw	-3979
▁sn	-3980
ergy	-3981
illo	-3982
▁viral	-3983
▁created	-3984
▁communic	-3985
▁California	-3986
▁ED	-3987
▁Abella	-3988
▁talking	-3989
▁criminals	-3990
▁presented	-3991
ports	-3992
ycle	-3993
yong	-3994
▁aim	-3995
▁goes	-3996
▁character	-3997
elt	-3998
iff	-3999
icts	-4000
5,	-4001
sa	-4002
▁NA	-4003
▁clar	-4004
▁exem	-4005
▁mist	-4006
▁performance	-4007
bong	-4008
▁norm	-4009
▁except	-4010
▁weekend	-4011
▁facilities	-4012
▁personally	-4013
BP	-4014
iles	-4015
▁sho	-4016
▁ver	-4017
▁anniversary	-4018
acted	-4019
▁quite	-4020
▁centers	-4021
▁retired	-4022
▁tourism	-4023
▁mentioned	-4024
▁respondents	-4025
▁ito	-4026
▁cross	-4027
▁crown	-4028
▁grand	-4029
▁recru	-4030
Robredo	-4031
▁original	-4032
ilan	-4033
loilo	-4034
▁Governor	-4035
BCP	-4036
Our	-4037
▁IV	-4038
abel	-4039
▁rain	-4040
▁Island	-4041
▁points	-4042
back	-4043
▁Del	-4044
▁After	-4045
▁hands	-4046
▁Western	-4047
utin	-4048
▁Blog	-4049
▁shared	-4050
▁Austral	-4051
▁Service	-4052
▁mus	-4053
mates	-4054
▁Real	-4055
▁duty	-4056
agayan	-4057
▁defend	-4058
▁attempt	-4059
▁visited	-4060
amasapano	-4061
▁district	-4062
▁regarding	-4063
ilat	-4064
iple	-4065
elect	-4066
▁firm	-4067
▁item	-4068
▁burial	-4069
▁opinion	-4070
fo	-4071
eed	-4072
▁Hill	-4073
lusion	-4074
▁belong	-4075
cel	-4076
▁dro	-4077
▁wid	-4078
Trump	-4079
asons	-4080
▁enem	-4081
▁alloc	-4082
▁field	-4083
▁Baguio	-4084
▁fellow	-4085
▁actress	-4086
alition	-4087
▁Carlos	-4088
▁orders	-4089
▁typhoon	-4090
Let	-4091
oto	-4092
apat	-4093
▁wage	-4094
ulated	-4095
▁decades	-4096
▁language	-4097
des	-4098
oses	-4099
wait	-4100
▁Now	-4101
▁Jejomar	-4102
▁station	-4103
▁Senators	-4104
▁aid	-4105
▁assoc	-4106
▁polls	-4107
▁prior	-4108
▁title	-4109
▁object	-4110
▁connect	-4111
▁promise	-4112
▁thinking	-4113
▁treatment	-4114
▁Communications	-4115
ales	-4116
lear	-4117
apped	-4118
istic	-4119
▁guil	-4120
▁abuse	-4121
▁growth	-4122
leag	-4123
▁Dis	-4124
▁wait	-4125
▁Section	-4126
▁related	-4127
▁detention	-4128
▁Get	-4129
▁mob	-4130
ufact	-4131
▁Alan	-4132
▁Lorenz	-4133
▁simple	-4134
▁housing	-4135
▁minutes	-4136
▁pending	-4137
▁Transportation	-4138
rem	-4139
engue	-4140
▁civil	-4141
▁submit	-4142
▁starting	-4143
500	-4144
▁upd	-4145
stead	-4146
ilinan	-4147
▁relief	-4148
▁involving	-4149
▁Mamasapano	-4150
▁Ninoy	-4151
▁equip	-4152
▁couple	-4153
ST	-4154
ban	-4155
pon	-4156
isis	-4157
loria	-4158
▁PCSO	-4159
▁Agency	-4160
▁Iloilo	-4161
▁create	-4162
▁ceremony	-4163
▁recorded	-4164
▁confident	-4165
▁immigration	-4166
atu	-4167
noy	-4168
▁Ku	-4169
arms	-4170
essa	-4171
▁mer	-4172
▁lawyers	-4173
11	-4174
60	-4175
law	-4176
antly	-4177
Many	-4178
asan	-4179
yond	-4180
▁Front	-4181
▁Andanar	-4182
],”	-4183
bon	-4184
ote	-4185
orse	-4186
▁unc	-4187
▁With	-4188
▁finding	-4189
▁towards	-4190
eta	-4191
icle	-4192
▁cru	-4193
▁Park	-4194
▁occup	-4195
▁sister	-4196
▁internet	-4197
▁Singapore	-4198
iced	-4199
▁pin	-4200
▁nine	-4201
ambling	-4202
▁resort	-4203
▁waiting	-4204
bit	-4205
▁22	-4206
▁numbers	-4207
▁standard	-4208
▁necessary	-4209
5-	-4210
zb	-4211
ancy	-4212
▁NBI	-4213
avite	-4214
▁exact	-4215
▁Malays	-4216
▁modern	-4217
▁governor	-4218
imp	-4219
▁PO	-4220
oted	-4221
ander	-4222
lusive	-4223
▁Carpio	-4224
▁battle	-4225
▁search	-4226
▁concerns	-4227
▁suspended	-4228
▁SC	-4229
cing	-4230
ighb	-4231
▁complaints	-4232
▁broad	-4233
▁image	-4234
actions	-4235
▁Gloria	-4236
▁headed	-4237
▁emergency	-4238
▁religious	-4239
han	-4240
ram	-4241
▁mas	-4242
apping	-4243
▁alone	-4244
▁forget	-4245
ON	-4246
yon	-4247
▁Gl	-4248
ulate	-4249
▁draw	-4250
▁unit	-4251
▁events	-4252
▁movement	-4253
ILG	-4254
▁EDSA	-4255
▁coll	-4256
▁send	-4257
called	-4258
▁experi	-4259
▁plunder	-4260
ye	-4261
▁Environment	-4262
ATED	-4263
fect	-4264
reet	-4265
illed	-4266
orales	-4267
quarters	-4268
▁equipment	-4269
▁questioned	-4270
BN	-4271
His	-4272
unal	-4273
▁Drilon	-4274
▁corpor	-4275
▁neighb	-4276
▁wearing	-4277
▁fem	-4278
▁ten	-4279
▁houses	-4280
▁amnesty	-4281
▁attended	-4282
▁conflict	-4283
▁dismissed	-4284
▁competition	-4285
RR	-4286
Asked	-4287
▁forum	-4288
▁invited	-4289
▁certific	-4290
▁repeated	-4291
▁violations	-4292
▁intelligence	-4293
ula	-4294
▁learn	-4295
▁placed	-4296
▁BBL	-4297
▁oil	-4298
eless	-4299
icken	-4300
▁advis	-4301
▁gradu	-4302
utan	-4303
▁log	-4304
▁knew	-4305
ertain	-4306
▁judge	-4307
▁allies	-4308
rol	-4309
draw	-4310
▁moment	-4311
idelines	-4312
ashington	-4313
▁policies	-4314
▁journalists	-4315
▁Vic	-4316
▁wind	-4317
▁colleag	-4318
ua	-4319
ibly	-4320
ites	-4321
atever	-4322
▁2017,	-4323
▁impact	-4324
▁kilomet	-4325
▁ongoing	-4326
▁property	-4327
▁effective	-4328
70	-4329
omen	-4330
oyal	-4331
▁risk	-4332
ograph	-4333
▁natin	-4334
▁Reform	-4335
▁commer	-4336
▁decide	-4337
▁testim	-4338
▁Cagayan	-4339
▁massive	-4340
▁quality	-4341
ET	-4342
▁Me	-4343
wood	-4344
▁rum	-4345
unity	-4346
▁built	-4347
▁critical	-4348
▁domestic	-4349
▁estimated	-4350
tor	-4351
uez	-4352
▁Aqu	-4353
▁bab	-4354
▁hum	-4355
urtzb	-4356
▁Pres	-4357
▁adop	-4358
mented	-4359
▁Bello	-4360
▁lands	-4361
urtzbach	-4362
▁license	-4363
Is	-4364
oph	-4365
reen	-4366
▁dipl	-4367
ELATED	-4368
▁declaration	-4369
▁representative	-4370
SWD	-4371
▁communist	-4372
▁supposedly	-4373
bu	-4374
▁cam	-4375
▁gener	-4376
▁reasons	-4377
▁Washington	-4378
cy	-4379
cer	-4380
▁CNN	-4381
▁condem	-4382
▁capacity	-4383
▁commander	-4384
▁respective	-4385
▁implemented	-4386
ches	-4387
▁stated	-4388
▁progress	-4389
40	-4390
▁Bulacan	-4391
▁determin	-4392
▁hearings	-4393
pa	-4394
pay	-4395
▁Leyte	-4396
▁gather	-4397
▁technology	-4398
▁Commissioner	-4399
AP	-4400
Here	-4401
▁Red	-4402
▁tas	-4403
▁assess	-4404
▁fisher	-4405
▁secret	-4406
▁continues	-4407
▁journalist	-4408
▁production	-4409
▁representatives	-4410
eth	-4411
obato	-4412
▁push	-4413
▁extra	-4414
▁average	-4415
▁Democratic	-4416
▁cooperation	-4417
▁professional	-4418
amin	-4419
▁Dec	-4420
▁suppl	-4421
RELATED	-4422
iculture	-4423
▁Escudero	-4424
▁overseas	-4425
▁Sil	-4426
icate	-4427
▁phys	-4428
▁German	-4429
▁abroad	-4430
▁places	-4431
▁English	-4432
ww	-4433
▁Rich	-4434
▁Tagu	-4435
▁beyond	-4436
▁latter	-4437
▁corrupt	-4438
▁drivers	-4439
▁partner	-4440
▁planned	-4441
▁wounded	-4442
▁Southeast	-4443
MC	-4444
uw	-4445
oking	-4446
▁posts	-4447
ulo	-4448
▁Fa	-4449
▁ID	-4450
Just	-4451
▁opt	-4452
▁Mich	-4453
▁ways	-4454
urance	-4455
▁champ	-4456
▁increased	-4457
”,	-4458
itch	-4459
▁SAF	-4460
▁sin	-4461
▁subs	-4462
▁Ramos	-4463
▁assum	-4464
▁waste	-4465
▁independent	-4466
▁Pad	-4467
▁Comp	-4468
▁appeal	-4469
▁accepted	-4470
▁recommend	-4471
▁ba	-4472
▁Sam	-4473
▁prem	-4474
▁Leader	-4475
▁quickly	-4476
▁compared	-4477
TI	-4478
EAN	-4479
sych	-4480
▁san	-4481
▁raise	-4482
▁Robles	-4483
▁acting	-4484
▁manufact	-4485
ourism	-4486
▁investigate	-4487
▁vig	-4488
▁Super	-4489
▁began	-4490
▁subst	-4491
▁though	-4492
▁climate	-4493
▁Minister	-4494
▁determine	-4495
▁increasing	-4496
Pol	-4497
Also	-4498
enez	-4499
▁Phil	-4500
▁appl	-4501
▁blue	-4502
▁count	-4503
▁damage	-4504
▁Japanese	-4505
▁withdraw	-4506
▁followers	-4507
▁,	-4508
long	-4509
▁Sum	-4510
▁rise	-4511
▁owned	-4512
lamation	-4513
▁missing	-4514
▁enforcement	-4515
▁26	-4516
cast	-4517
▁Ori	-4518
▁prim	-4519
Marcos	-4520
▁lords	-4521
▁Kuwait	-4522
amboanga	-4523
▁Eastern	-4524
▁Indones	-4525
▁presence	-4526
Spe	-4527
rile	-4528
▁jeep	-4529
▁Maj	-4530
▁Navy	-4531
▁restaur	-4532
▁Netizens	-4533
▁previously	-4534
15	-4535
▁song	-4536
▁memor	-4537
▁mostly	-4538
▁scheme	-4539
▁covered	-4540
▁appeared	-4541
▁receiving	-4542
▁eventually	-4543
cks	-4544
isf	-4545
onz	-4546
ulong	-4547
▁Albay	-4548
iciaries	-4549
▁informed	-4550
BT	-4551
ño	-4552
▁nor	-4553
▁2014	-4554
▁irre	-4555
hensive	-4556
related	-4557
▁crisis	-4558
▁threats	-4559
▁dictator	-4560
▁remained	-4561
▁conditions	-4562
noon	-4563
with	-4564
angan	-4565
ivity	-4566
▁Coop	-4567
▁Senior	-4568
▁Hillary	-4569
▁winning	-4570
▁minority	-4571
▁involvement	-4572
SC	-4573
arks	-4574
▁Arch	-4575
▁Magu	-4576
▁reit	-4577
▁siya	-4578
▁closed	-4579
▁knowledge	-4580
▁controversy	-4581
▁”	-4582
▁Su	-4583
oved	-4584
▁How	-4585
▁copy	-4586
▁star	-4587
▁conte	-4588
▁gambling	-4589
esto	-4590
▁Pen	-4591
▁lose	-4592
▁fully	-4593
▁Martin	-4594
▁powers	-4595
▁located	-4596
▁reading	-4597
▁standing	-4598
▁Wurtzbach	-4599
▁Yellowtards	-4600
fort	-4601
arcia	-4602
▁towns	-4603
▁forced	-4604
▁consist	-4605
ev	-4606
200	-4607
▁Sub	-4608
▁fan	-4609
andal	-4610
▁Ressa	-4611
▁inform	-4612
▁deliver	-4613
▁vehicle	-4614
▁purchase	-4615
▁candidacy	-4616
ta	-4617
▁IS	-4618
fire	-4619
▁date	-4620
▁Organ	-4621
▁witnesses	-4622
▁Bl	-4623
iling	-4624
▁Bank	-4625
▁plat	-4626
▁smugg	-4627
▁largest	-4628
▁positions	-4629
▁headquarters	-4630
Ab	-4631
aza	-4632
▁ABS	-4633
▁sad	-4634
▁room	-4635
ilibid	-4636
▁spent	-4637
▁powerful	-4638
andum	-4639
aredes	-4640
▁Macap	-4641
▁works	-4642
▁Econom	-4643
▁courts	-4644
▁execut	-4645
Pro	-4646
pol	-4647
Even	-4648
anded	-4649
▁Year	-4650
▁kept	-4651
▁task	-4652
▁directly	-4653
▁electric	-4654
▁Provincial	-4655
▁citizenship	-4656
Be	-4657
-1/	-4658
rez	-4659
omes	-4660
▁Neg	-4661
▁Some	-4662
▁cast	-4663
▁felt	-4664
▁probe	-4665
▁voting	-4666
▁Blogger	-4667
▁purpose	-4668
▁audience	-4669
▁stressed	-4670
▁registered	-4671
▁prosecution	-4672
osen	-4673
Among	-4674
▁altern	-4675
▁perpet	-4676
▁afternoon	-4677
▁terrorism	-4678
po	-4679
Rep	-4680
elo	-4681
▁rid	-4682
ihood	-4683
ipped	-4684
▁Land	-4685
▁exec	-4686
urning	-4687
▁initi	-4688
▁Welfare	-4689
aves	-4690
▁color	-4691
▁contact	-4692
▁Matobato	-4693
▁employers	-4694
TV	-4695
tes	-4696
▁DOJ	-4697
▁tick	-4698
▁wasn	-4699
▁ahead	-4700
▁refer	-4701
Trillanes	-4702
▁facility	-4703
25	-4704
45	-4705
alse	-4706
▁Ste	-4707
▁inaug	-4708
▁disqual	-4709
▁section	-4710
▁published	-4711
▁relatives	-4712
▁environmental	-4713
ahil	-4714
iece	-4715
uties	-4716
▁heavy	-4717
▁juris	-4718
▁motorc	-4719
▁nearly	-4720
▁winner	-4721
▁arrived	-4722
▁privile	-4723
uro	-4724
Since	-4725
▁spir	-4726
▁ended	-4727
▁Bilibid	-4728
▁firearms	-4729
▁ak	-4730
alls	-4731
▁Inf	-4732
▁Fund	-4733
▁dela	-4734
anging	-4735
▁Inday	-4736
▁defin	-4737
▁fired	-4738
▁energy	-4739
▁opened	-4740
▁positive	-4741
▁Agriculture	-4742
▁Af	-4743
▁Mc	-4744
▁emot	-4745
utions	-4746
▁judges	-4747
▁opening	-4748
▁Conference	-4749
▁CHR	-4750
▁Nov	-4751
▁fle	-4752
▁suc	-4753
▁System	-4754
▁Pacific	-4755
▁minimum	-4756
▁temporary	-4757
▁Pangilinan	-4758
iñas	-4759
▁Mad	-4760
alian	-4761
angas	-4762
▁Inte	-4763
▁acts	-4764
▁2017.	-4765
▁These	-4766
▁Cavite	-4767
▁chosen	-4768
▁histor	-4769
▁Vicente	-4770
▁growing	-4771
▁written	-4772
▁administrative	-4773
Not	-4774
REA	-4775
ica	-4776
▁Hot	-4777
▁card	-4778
▁restr	-4779
▁Hawaii	-4780
▁hundreds	-4781
▁includes	-4782
▁DENR	-4783
▁Oper	-4784
▁Pant	-4785
▁impl	-4786
▁wish	-4787
▁knows	-4788
▁Oriental	-4789
unte	-4790
abato	-4791
eldon	-4792
▁East	-4793
▁bail	-4794
ifying	-4795
▁rains	-4796
▁reality	-4797
▁addition	-4798
▁remaining	-4799
▁ma	-4800
enda	-4801
upid	-4802
▁businesses	-4803
▁Maguindanao	-4804
▁established	-4805
ahan	-4806
itan	-4807
▁acqu	-4808
ivered	-4809
ounting	-4810
▁directed	-4811
Go	-4812
jo	-4813
Pac	-4814
▁29	-4815
▁Deng	-4816
▁Techn	-4817
otabato	-4818
▁actual	-4819
▁confirm	-4820
▁sustain	-4821
▁Macapagal	-4822
▁commercial	-4823
▁revolution	-4824
axia	-4825
endo	-4826
▁Cat	-4827
▁squ	-4828
▁earn	-4829
▁sites	-4830
Earlier	-4831
▁explos	-4832
▁helped	-4833
▁victory	-4834
versation	-4835
▁challeng	-4836
▁lawmaker	-4837
▁28	-4838
▁Ec	-4839
▁NFA	-4840
▁gas	-4841
▁conven	-4842
Ang	-4843
CBN	-4844
▁Sm	-4845
▁War	-4846
vaxia	-4847
▁kasi	-4848
▁resulted	-4849
ola	-4850
ahat	-4851
▁pra	-4852
▁2013	-4853
▁dise	-4854
▁easy	-4855
▁path	-4856
▁newly	-4857
▁takes	-4858
▁Street	-4859
▁welcome	-4860
▁disaster	-4861
▁exercise	-4862
▁apparently	-4863
bre	-4864
▁UP	-4865
▁Tal	-4866
ataan	-4867
error	-4868
▁Page	-4869
▁promote	-4870
17	-4871
rodu	-4872
rupt	-4873
acing	-4874
▁born	-4875
Philippin	-4876
▁delivered	-4877
▁inflation	-4878
);	-4879
▁sea	-4880
▁Power	-4881
▁changes	-4882
▁inspect	-4883
▁monthly	-4884
▁opposed	-4885
▁although	-4886
▁practice	-4887
Filip	-4888
▁owner	-4889
igrants	-4890
▁Napoles	-4891
▁coordin	-4892
▁succeed	-4893
abilities	-4894
▁speaking	-4895
▁beneficiaries	-4896
▁Bac	-4897
▁pati	-4898
edding	-4899
lihood	-4900
▁welcom	-4901
▁experts	-4902
▁probably	-4903
▁kilometers	-4904
▁resignation	-4905
itors	-4906
▁raid	-4907
▁slow	-4908
▁Offic	-4909
▁movie	-4910
▁citing	-4911
▁normal	-4912
▁Russian	-4913
mark	-4914
orry	-4915
▁ven	-4916
▁demon	-4917
▁affairs	-4918
▁activity	-4919
▁Undersecretary	-4920
▁44	-4921
raid	-4922
▁mak	-4923
▁Code	-4924
▁looks	-4925
▁speed	-4926
▁guilty	-4927
▁justices	-4928
▁electoral	-4929
MP	-4930
▁3,	-4931
▁cab	-4932
▁nila	-4933
▁shut	-4934
▁sila	-4935
▁declare	-4936
▁Dengvaxia	-4937
▁commitment	-4938
Us	-4939
usan	-4940
▁que	-4941
▁Luis	-4942
▁Lanao	-4943
▁draft	-4944
▁earth	-4945
▁smart	-4946
▁depend	-4947
▁registr	-4948
set	-4949
asion	-4950
▁items	-4951
▁seeks	-4952
▁duties	-4953
▁female	-4954
▁serving	-4955
▁research	-4956
▁et	-4957
free	-4958
iang	-4959
▁obt	-4960
▁tag	-4961
iring	-4962
▁Char	-4963
▁doll	-4964
▁drive	-4965
Senator	-4966
▁Villar	-4967
▁provides	-4968
▁remember	-4969
My	-4970
sex	-4971
umn	-4972
sean	-4973
oring	-4974
▁rich	-4975
▁weap	-4976
▁train	-4977
estival	-4978
▁deploy	-4979
▁generation	-4980
12	-4981
iw	-4982
mbly	-4983
▁Mig	-4984
ented	-4985
▁outr	-4986
▁aside	-4987
▁choose	-4988
▁Northern	-4989
▁platform	-4990
More	-4991
▁Tan	-4992
dress	-4993
▁Even	-4994
▁legit	-4995
▁famous	-4996
▁details	-4997
▁inmates	-4998
▁employment	-4999
▁shown	-5000
▁track	-5001
▁worked	-5002
▁leaving	-5003
▁resident	-5004
▁negotiations	-5005
▁Imm	-5006
▁save	-5007
▁border	-5008
▁Filipina	-5009
▁approach	-5010
▁appropriate	-5011
Cor	-5012
▁ruled	-5013
▁operating	-5014
▁Why	-5015
▁indeed	-5016
▁classes	-5017
▁stories	-5018
▁intended	-5019
▁whatever	-5020
▁household	-5021
▁surrender	-5022
▁rob	-5023
▁1987	-5024
▁Lour	-5025
▁Tourism	-5026
▁achieve	-5027
▁happens	-5028
▁legislation	-5029
▁GO	-5030
▁ign	-5031
ropol	-5032
▁Sulu	-5033
▁sout	-5034
▁renew	-5035
▁solve	-5036
▁truly	-5037
▁Lourdes	-5038
▁remarks	-5039
ortunately	-5040
▁qualified	-5041
▁supported	-5042
▁Employment	-5043
0.	-5044
OT	-5045
uer	-5046
yle	-5047
aret	-5048
rees	-5049
tees	-5050
▁INC	-5051
▁Mel	-5052
▁Tai	-5053
▁sle	-5054
ocked	-5055
▁coast	-5056
▁mental	-5057
▁salary	-5058
▁secure	-5059
▁waters	-5060
▁picture	-5061
/2014	-5062
aying	-5063
▁PDEA	-5064
▁doubt	-5065
▁spoke	-5066
▁worst	-5067
standing	-5068
▁recruit	-5069
▁tourists	-5070
▁completed	-5071
has	-5072
ults	-5073
▁scr	-5074
▁2019	-5075
▁Brit	-5076
▁band	-5077
▁diss	-5078
icious	-5079
▁integrity	-5080
▁providing	-5081
▁possibility	-5082
AS	-5083
▁af	-5084
rael	-5085
▁Sol	-5086
▁pic	-5087
▁pul	-5088
▁rein	-5089
lywood	-5090
▁carry	-5091
▁Corpor	-5092
Speaking	-5093
▁quarter	-5094
▁Santiago	-5095
▁ordinary	-5096
▁contractual	-5097
▁partnership	-5098
COO	-5099
▁27	-5100
▁PR	-5101
▁dog	-5102
▁max	-5103
▁pap	-5104
uters	-5105
▁kayo	-5106
▁While	-5107
▁entry	-5108
▁Doming	-5109
▁meetings	-5110
▁Associate	-5111
18	-5112
ican	-5113
▁Barack	-5114
▁Enrile	-5115
▁afford	-5116
▁flight	-5117
▁sexual	-5118
▁Richard	-5119
▁Cotabato	-5120
▁threatened	-5121
iber	-5122
▁Ern	-5123
ademy	-5124
hered	-5125
▁lies	-5126
▁Found	-5127
▁vowed	-5128
▁formal	-5129
▁challenged	-5130
gers	-5131
know	-5132
term	-5133
▁obv	-5134
▁Alex	-5135
▁Salv	-5136
▁levels	-5137
▁Finance	-5138
▁Paredes	-5139
▁dangerous	-5140
▁requirements	-5141
Dep	-5142
rer	-5143
▁id	-5144
▁Ins	-5145
▁awa	-5146
cript	-5147
▁Frank	-5148
▁dream	-5149
▁homes	-5150
▁innoc	-5151
▁deputy	-5152
▁accompl	-5153
Mal	-5154
abi	-5155
igao	-5156
luded	-5157
▁anim	-5158
▁synd	-5159
acting	-5160
▁Paolo	-5161
▁behav	-5162
▁rating	-5163
ilateral	-5164
▁materials	-5165
TF	-5166
oman	-5167
▁arg	-5168
azine	-5169
▁Mass	-5170
▁surr	-5171
ilding	-5172
usiness	-5173
forcement	-5174
▁colleagues	-5175
aka	-5176
fri	-5177
ora	-5178
▁Ra	-5179
▁GMA	-5180
onsid	-5181
▁pers	-5182
antage	-5183
raight	-5184
▁boost	-5185
Despite	-5186
utation	-5187
▁punish	-5188
NPA	-5189
ivil	-5190
▁Gal	-5191
▁Gov	-5192
▁Pia	-5193
▁Port	-5194
▁gets	-5195
bishop	-5196
▁Garcia	-5197
ferences	-5198
▁passage	-5199
▁vaccine	-5200
▁Lorenzana	-5201
oso	-5202
unch	-5203
▁sens	-5204
agalog	-5205
▁Crame	-5206
▁senatorial	-5207
▁2.	-5208
acio	-5209
idge	-5210
▁fine	-5211
▁visa	-5212
▁Sison	-5213
▁voice	-5214
▁Nation	-5215
▁Economic	-5216
▁governance	-5217
▁prosecutors	-5218
!!	-5219
19	-5220
RB	-5221
aped	-5222
resh	-5223
Arroyo	-5224
▁Trial	-5225
idental	-5226
itarian	-5227
▁perman	-5228
▁propag	-5229
▁Batangas	-5230
▁establishments	-5231
abe	-5232
lan	-5233
char	-5234
rency	-5235
▁STOR	-5236
▁actor	-5237
▁stake	-5238
▁Negros	-5239
▁jurisd	-5240
▁strict	-5241
▁priority	-5242
▁Resources	-5243
▁disclosed	-5244
▁traditional	-5245
Of	-5246
IES	-5247
Man	-5248
▁BOC	-5249
▁Ser	-5250
▁via	-5251
Laban	-5252
ashed	-5253
iable	-5254
▁extend	-5255
▁assigned	-5256
uba	-5257
▁90	-5258
▁Fern	-5259
▁Reyn	-5260
▁chicken	-5261
▁reminded	-5262
▁livelihood	-5263
CA	-5264
att	-5265
▁Fl	-5266
▁ep	-5267
berg	-5268
▁LGBT	-5269
▁fraud	-5270
ression	-5271
▁agenda	-5272
▁easily	-5273
▁perfect	-5274
▁usually	-5275
▁happening	-5276
ef	-5277
yang	-5278
▁Est	-5279
olanda	-5280
▁ASEAN	-5281
▁River	-5282
▁dahil	-5283
▁Laguna	-5284
▁master	-5285
▁application	-5286
will	-5287
secut	-5288
▁fuel	-5289
▁niya	-5290
ception	-5291
uration	-5292
▁extort	-5293
▁Michael	-5294
▁Morales	-5295
▁conserv	-5296
▁warning	-5297
▁distribution	-5298
WH	-5299
ique	-5300
jerc	-5301
▁King	-5302
▁fees	-5303
igaret	-5304
jercito	-5305
▁Deputy	-5306
▁afraid	-5307
▁bigger	-5308
▁proced	-5309
▁However	-5310
▁beginning	-5311
UC	-5312
▁RA	-5313
▁eth	-5314
ategy	-5315
eping	-5316
▁Mind	-5317
▁Rody	-5318
▁coff	-5319
▁oath	-5320
▁loyal	-5321
▁troub	-5322
▁worse	-5323
▁carried	-5324
▁extension	-5325
▁monitoring	-5326
▁accusations	-5327
14	-5328
35	-5329
lls	-5330
dden	-5331
ietn	-5332
▁Cam	-5333
essed	-5334
▁Many	-5335
▁kids	-5336
stream	-5337
▁false	-5338
▁wonder	-5339
▁wedding	-5340
▁collection	-5341
Sh	-5342
hood	-5343
odies	-5344
works	-5345
▁Over	-5346
▁weak	-5347
▁revenue	-5348
▁pressure	-5349
ML	-5350
Tw	-5351
oj	-5352
ann	-5353
READ	-5354
aldo	-5355
bing	-5356
▁fat	-5357
owned	-5358
▁wala	-5359
▁proof	-5360
▁advised	-5361
▁introdu	-5362
▁islands	-5363
▁officially	-5364
Ex	-5365
gent	-5366
▁CEO	-5367
▁bit	-5368
▁feed	-5369
▁meth	-5370
▁plane	-5371
▁Israel	-5372
▁division	-5373
▁civilians	-5374
▁Foundation	-5375
uet	-5376
mits	-5377
▁Occ	-5378
▁uns	-5379
ables	-5380
inally	-5381
▁apply	-5382
▁hopes	-5383
▁assets	-5384
▁highly	-5385
▁Chairman	-5386
▁European	-5387
▁minister	-5388
▁Hollywood	-5389
gry	-5390
run	-5391
Other	-5392
▁Sept	-5393
▁seat	-5394
▁faced	-5395
▁agents	-5396
▁carrying	-5397
▁extended	-5398
Ad	-5399
▁197	-5400
▁Har	-5401
itory	-5402
▁cease	-5403
▁south	-5404
▁linked	-5405
▁Ernesto	-5406
▁attending	-5407
IV	-5408
ox	-5409
How	-5410
ews	-5411
see	-5412
▁drop	-5413
orough	-5414
▁Nueva	-5415
▁limit	-5416
▁Pageant	-5417
▁stopped	-5418
▁patients	-5419
▁customers	-5420
▁influence	-5421
▁interests	-5422
▁reporting	-5423
dy	-5424
).“	-5425
DAF	-5426
▁Ev	-5427
Aside	-5428
▁psych	-5429
▁spend	-5430
▁adjust	-5431
▁career	-5432
▁circum	-5433
▁Angeles	-5434
▁responded	-5435
▁standards	-5436
▁institutions	-5437
DB	-5438
uz	-5439
andon	-5440
▁forg	-5441
▁pros	-5442
▁taxi	-5443
▁bills	-5444
▁depart	-5445
ological	-5446
▁Officer	-5447
▁Padilla	-5448
▁reforms	-5449
▁Hospital	-5450
▁coverage	-5451
▁defended	-5452
▁Christian	-5453
▁technical	-5454
cked	-5455
ubiri	-5456
▁Lady	-5457
▁Memor	-5458
▁Vietn	-5459
▁equal	-5460
▁seized	-5461
▁stupid	-5462
▁constit	-5463
▁holiday	-5464
▁successful	-5465
],	-5466
▁80	-5467
▁brib	-5468
▁dated	-5469
▁dengue	-5470
▁seeing	-5471
▁summit	-5472
▁insisted	-5473
oma	-5474
drug	-5475
ster	-5476
uela	-5477
▁Osc	-5478
▁newsp	-5479
▁views	-5480
illegas	-5481
▁hoping	-5482
▁thanks	-5483
▁central	-5484
▁Bongbong	-5485
▁alternative	-5486
▁personalities	-5487
mor	-5488
▁SM	-5489
hang	-5490
▁Vel	-5491
▁none	-5492
▁rape	-5493
endoza	-5494
▁David	-5495
▁Bayani	-5496
▁attemp	-5497
▁satisf	-5498
▁contain	-5499
Presidential	-5500
▁jurisdiction	-5501
oked	-5502
uries	-5503
▁Ramon	-5504
▁paying	-5505
atchalian	-5506
▁negative	-5507
▁discussed	-5508
▁provisions	-5509
▁Enforcement	-5510
.(	-5511
SP	-5512
ded	-5513
arlia	-5514
uting	-5515
▁Hong	-5516
▁hect	-5517
▁wide	-5518
▁spirit	-5519
▁strateg	-5520
▁claiming	-5521
▁addressed	-5522
▁conducting	-5523
En	-5524
sin	-5525
agan	-5526
aman	-5527
enza	-5528
▁sab	-5529
anced	-5530
▁plot	-5531
▁sale	-5532
▁thus	-5533
▁aimed	-5534
▁surve	-5535
▁acknow	-5536
▁middle	-5537
▁sudden	-5538
amarines	-5539
▁endorse	-5540
▁returned	-5541
▁reiterated	-5542
▁regulations	-5543
▁congressional	-5544
MB	-5545
xual	-5546
▁Edu	-5547
amber	-5548
ingan	-5549
▁aims	-5550
▁Award	-5551
▁entit	-5552
▁Taiwan	-5553
▁figure	-5554
▁pursue	-5555
▁legislative	-5556
▁proceedings	-5557
▁significant	-5558
80	-5559
Con	-5560
acco	-5561
iege	-5562
jano	-5563
▁COA	-5564
▁eye	-5565
itely	-5566
▁funding	-5567
▁ratings	-5568
▁regions	-5569
▁violated	-5570
▁visiting	-5571
▁surrendered	-5572
irt	-5573
cell	-5574
idav	-5575
iñol	-5576
▁Rol	-5577
aches	-5578
icide	-5579
▁Bern	-5580
▁categ	-5581
▁moral	-5582
▁storm	-5583
▁senate	-5584
▁Surigao	-5585
▁consequ	-5586
▁Services	-5587
▁Occidental	-5588
eno	-5589
comm	-5590
plan	-5591
▁lie	-5592
▁alive	-5593
▁crack	-5594
▁lahat	-5595
▁Canada	-5596
▁Pangas	-5597
▁notice	-5598
▁college	-5599
▁exactly	-5600
▁married	-5601
▁repeatedly	-5602
▁retirement	-5603
ING	-5604
andez	-5605
▁Geor	-5606
▁shel	-5607
▁James	-5608
▁chose	-5609
▁roads	-5610
Comelec	-5611
▁buried	-5612
▁engine	-5613
▁intens	-5614
▁proven	-5615
▁scient	-5616
▁Bishops	-5617
▁counsel	-5618
▁grounds	-5619
▁imposed	-5620
▁manager	-5621
arliament	-5622
▁Salvador	-5623
▁declined	-5624
▁investment	-5625
By	-5626
ien	-5627
▁Met	-5628
▁fix	-5629
unist	-5630
▁sacr	-5631
▁suit	-5632
istics	-5633
person	-5634
▁giant	-5635
▁moved	-5636
▁skills	-5637
▁extreme	-5638
▁pension	-5639
▁recalled	-5640
▁Sa	-5641
▁Sr	-5642
anim	-5643
izes	-5644
▁Cas	-5645
▁DOH	-5646
▁enh	-5647
▁sem	-5648
▁Cons	-5649
▁fell	-5650
▁pang	-5651
▁ties	-5652
▁DepEd	-5653
▁aware	-5654
▁deleg	-5655
▁guard	-5656
▁proud	-5657
▁Action	-5658
▁nature	-5659
▁closure	-5660
▁payment	-5661
▁removed	-5662
▁learning	-5663
▁territor	-5664
▁seriously	-5665
▁discovered	-5666
▁transportation	-5667
ocan	-5668
▁base	-5669
▁eyes	-5670
▁encoun	-5671
▁taxpay	-5672
arangays	-5673
▁Malaysia	-5674
▁favorite	-5675
▁spending	-5676
IP	-5677
apt	-5678
ague	-5679
▁Again	-5680
▁Former	-5681
▁Revilla	-5682
▁telling	-5683
▁strategy	-5684
▁tradition	-5685
▁Liberation	-5686
col	-5687
▁ND	-5688
▁CPP	-5689
ailed	-5690
ilang	-5691
rence	-5692
▁Risa	-5693
▁arch	-5694
▁imag	-5695
▁slam	-5696
▁indig	-5697
▁lines	-5698
▁throw	-5699
▁expert	-5700
▁limited	-5701
Dav	-5702
eals	-5703
Binay	-5704
month	-5705
▁pret	-5706
▁unif	-5707
▁maybe	-5708
▁Europe	-5709
▁boxing	-5710
▁STORIES	-5711
▁clearly	-5712
▁volunte	-5713
▁coalition	-5714
▁worldwide	-5715
▁Corporation	-5716
da	-5717
uy	-5718
vis	-5719
ayon	-5720
▁Jer	-5721
▁Our	-5722
▁Paul	-5723
ruption	-5724
▁Because	-5725
▁mandate	-5726
▁plastic	-5727
▁sectors	-5728
▁becoming	-5729
▁composed	-5730
▁exclusive	-5731
▁Pangasinan	-5732
▁investigating	-5733
IM	-5734
Poe	-5735
try	-5736
▁PA	-5737
chol	-5738
deed	-5739
▁Don	-5740
▁rib	-5741
aleon	-5742
house	-5743
▁goal	-5744
Another	-5745
Because	-5746
▁combat	-5747
▁Medical	-5748
▁evening	-5749
▁therefore	-5750
▁invitation	-5751
la	-5752
Com	-5753
ham	-5754
hay	-5755
lif	-5756
▁die	-5757
▁Arab	-5758
▁DILG	-5759
▁defe	-5760
▁virt	-5761
▁wake	-5762
ancing	-5763
▁Elect	-5764
▁space	-5765
▁Branch	-5766
▁engaged	-5767
▁consumers	-5768
Pe	-5769
].	-5770
Pag	-5771
ura	-5772
▁ir	-5773
▁male	-5774
▁siege	-5775
▁Appeals	-5776
▁Faeldon	-5777
▁maximum	-5778
▁perhaps	-5779
▁reaction	-5780
▁continuing	-5781
▁federalism	-5782
90	-5783
gn	-5784
---	-5785
pan	-5786
▁bin	-5787
▁ped	-5788
▁swe	-5789
eting	-5790
▁Work	-5791
▁flow	-5792
▁heav	-5793
▁Watch	-5794
▁medic	-5795
▁paper	-5796
urement	-5797
▁mobile	-5798
▁comfort	-5799
▁offense	-5800
▁prompted	-5801
▁southern	-5802
▁recovered	-5803
▁requested	-5804
▁motorcycle	-5805
▁participate	-5806
bal	-5807
Bong	-5808
añas	-5809
iest	-5810
that	-5811
▁Roa	-5812
▁bes	-5813
▁eld	-5814
▁Mexico	-5815
▁Miguel	-5816
▁credit	-5817
▁becomes	-5818
▁enemies	-5819
▁allowing	-5820
▁birthday	-5821
▁Pantaleon	-5822
▁governments	-5823
Her	-5824
MLC	-5825
bur	-5826
rep	-5827
▁My	-5828
alde	-5829
iman	-5830
▁MRT	-5831
▁etc	-5832
▁fit	-5833
enous	-5834
ommod	-5835
▁ends	-5836
▁sett	-5837
▁2015,	-5838
▁Samar	-5839
▁round	-5840
▁produc	-5841
▁reduce	-5842
▁Academy	-5843
▁treated	-5844
▁Southern	-5845
▁resigned	-5846
▁shooting	-5847
▁convicted	-5848
▁testimony	-5849
▁guidelines	-5850
▁supporting	-5851
fl	-5852
ket	-5853
inct	-5854
room	-5855
▁Nav	-5856
amily	-5857
antry	-5858
ivery	-5859
▁Bicol	-5860
▁organized	-5861
▁confidence	-5862
▁Immigration	-5863
▁opportunities	-5864
roc	-5865
Sant	-5866
inag	-5867
▁SSS	-5868
▁Food	-5869
Police	-5870
▁Dayan	-5871
▁Press	-5872
▁bodies	-5873
▁anymore	-5874
1-	-5875
wed	-5876
fill	-5877
nown	-5878
▁Bag	-5879
▁Dan	-5880
Roque	-5881
▁Mary	-5882
▁pick	-5883
▁tayo	-5884
anueva	-5885
atched	-5886
mbassy	-5887
▁Afric	-5888
▁thank	-5889
▁incumb	-5890
▁singer	-5891
▁custody	-5892
▁focused	-5893
▁injured	-5894
▁rejected	-5895
▁intention	-5896
▁popularity	-5897
100	-5898
:30	-5899
onso	-5900
▁Are	-5901
▁fre	-5902
▁tim	-5903
▁tot	-5904
ining	-5905
▁issu	-5906
coming	-5907
▁presum	-5908
▁unless	-5909
▁College	-5910
▁Mindoro	-5911
▁demonstr	-5912
▁Camarines	-5913
▁violating	-5914
▁throughout	-5915
▁Organization	-5916
▁constitution	-5917
MEL	-5918
▁Ak	-5919
▁Tac	-5920
▁hotel	-5921
▁slain	-5922
ilitary	-5923
imately	-5924
▁active	-5925
▁ballot	-5926
▁accommod	-5927
▁tribunal	-5928
▁businessman	-5929
oo	-5930
▁gar	-5931
▁pil	-5932
▁CBCP	-5933
▁Judge	-5934
▁Prime	-5935
▁nomine	-5936
▁select	-5937
▁helping	-5938
▁registration	-5939
75	-5940
itt	-5941
▁5,	-5942
egas	-5943
omas	-5944
▁ded	-5945
▁symb	-5946
iciary	-5947
▁exist	-5948
▁endors	-5949
▁fourth	-5950
▁Capital	-5951
▁signing	-5952
▁messages	-5953
▁welcomed	-5954
cont	-5955
icon	-5956
▁Aud	-5957
▁Sab	-5958
cañas	-5959
▁alias	-5960
▁writing	-5961
▁protests	-5962
▁destroyed	-5963
▁recognized	-5964
▁70	-5965
From	-5966
aint	-5967
laim	-5968
asted	-5969
fight	-5970
▁dark	-5971
▁rail	-5972
uclear	-5973
▁Vital	-5974
▁brand	-5975
▁Embassy	-5976
▁Natural	-5977
▁Franklin	-5978
▁employee	-5979
Philippine	-5980
▁Indonesia	-5981
US	-5982
aked	-5983
born	-5984
fall	-5985
itime	-5986
▁Crist	-5987
▁Drugs	-5988
▁Peace	-5989
▁Vegas	-5990
▁model	-5991
▁north	-5992
▁Angara	-5993
▁severe	-5994
▁appears	-5995
▁activists	-5996
▁contracts	-5997
UP	-5998
ijing	-5999
▁Cont	-6000
▁Vict	-6001
▁brok	-6002
▁hate	-6003
▁joke	-6004
▁Class	-6005
▁boxer	-6006
▁rates	-6007
▁Summit	-6008
▁merely	-6009
▁entertain	-6010
▁agriculture	-6011
▁certificate	-6012
13	-6013
lob	-6014
Bato	-6015
alan	-6016
▁cat	-6017
▁daw	-6018
anged	-6019
gment	-6020
▁gain	-6021
▁plus	-6022
▁pron	-6023
▁Oscar	-6024
▁prime	-6025
▁vigil	-6026
▁entered	-6027
▁putting	-6028
▁Libingan	-6029
▁gathering	-6030
▁incidents	-6031
▁designated	-6032
DP	-6033
Net	-6034
ipe	-6035
lyn	-6036
aken	-6037
ogle	-6038
▁DSWD	-6039
isters	-6040
▁forms	-6041
reement	-6042
▁abuses	-6043
▁looked	-6044
▁regime	-6045
▁tourist	-6046
▁maintain	-6047
▁ib	-6048
arer	-6049
▁Far	-6050
▁Syr	-6051
▁ult	-6052
ients	-6053
nergy	-6054
▁blame	-6055
▁Avenue	-6056
▁rescue	-6057
olicitor	-6058
▁delivery	-6059
▁operators	-6060
▁suffering	-6061
▁effectively	-6062
▁implementing	-6063
65	-6064
TE	-6065
▁tat	-6066
anche	-6067
▁dial	-6068
▁magn	-6069
▁Address	-6070
▁dropped	-6071
▁assistant	-6072
▁fishermen	-6073
▁Ty	-6074
iful	-6075
▁STL	-6076
▁yan	-6077
Based	-6078
▁Kong	-6079
▁Will	-6080
▁rall	-6081
▁walk	-6082
onents	-6083
tienza	-6084
holders	-6085
iciency	-6086
▁Command	-6087
▁bidding	-6088
▁resolve	-6089
▁totally	-6090
▁weapons	-6091
▁Industry	-6092
▁reporter	-6093
▁maintained	-6094
▁memorandum	-6095
bl	-6096
Why	-6097
▁Lt	-6098
▁bi	-6099
▁airc	-6100
▁mate	-6101
▁stood	-6102
▁guaran	-6103
▁remove	-6104
▁Internal	-6105
▁straight	-6106
▁territory	-6107
▁recommended	-6108
GO	-6109
LP	-6110
AFP	-6111
▁500	-6112
▁cry	-6113
▁ess	-6114
verse	-6115
friend	-6116
▁audit	-6117
▁grave	-6118
▁match	-6119
iminate	-6120
▁accord	-6121
▁meters	-6122
▁priest	-6123
▁produce	-6124
▁Vitaliano	-6125
▁experienced	-6126
IDG	-6127
▁AL	-6128
acre	-6129
▁Ann	-6130
▁Sar	-6131
MELEC	-6132
▁Task	-6133
▁toug	-6134
▁mouth	-6135
▁solid	-6136
▁changed	-6137
▁matters	-6138
▁Reynaldo	-6139
▁champion	-6140
▁Australia	-6141
iko	-6142
▁Lo	-6143
acle	-6144
then	-6145
vereign	-6146
▁Budget	-6147
▁comply	-6148
▁industr	-6149
▁pronoun	-6150
▁Villegas	-6151
▁smuggling	-6152
44	-6153
ips	-6154
▁Pul	-6155
▁Rub	-6156
▁NAIA	-6157
▁Well	-6158
▁note	-6159
▁absol	-6160
onomous	-6161
▁Calida	-6162
▁rising	-6163
▁Beijing	-6164
▁arrival	-6165
▁reflect	-6166
▁systems	-6167
▁surprised	-6168
▁immigrants	-6169
FF	-6170
acc	-6171
audi	-6172
oocan	-6173
▁Asean	-6174
▁block	-6175
▁music	-6176
▁piece	-6177
▁shift	-6178
▁moving	-6179
▁undert	-6180
▁cigaret	-6181
▁Infantry	-6182
▁sovereign	-6183
ows	-6184
rog	-6185
unk	-6186
leum	-6187
mali	-6188
ument	-6189
▁bott	-6190
▁Clark	-6191
▁calam	-6192
ropical	-6193
▁academ	-6194
▁blamed	-6195
▁silence	-6196
ocumented	-6197
▁argument	-6198
▁expenses	-6199
▁Communist	-6200
▁Information	-6201
ija	-6202
▁SO	-6203
ecto	-6204
▁30,	-6205
▁Mas	-6206
▁Ted	-6207
▁Road	-6208
▁loan	-6209
uition	-6210
▁broke	-6211
▁Mendoza	-6212
▁peaceful	-6213
▁visitors	-6214
▁advantage	-6215
▁clarified	-6216
▁Operations	-6217
▁determined	-6218
▁transactions	-6219
29	-6220
▁4,	-6221
aine	-6222
quez	-6223
rugg	-6224
▁beg	-6225
▁nga	-6226
urred	-6227
▁Call	-6228
▁nang	-6229
▁Coast	-6230
▁depos	-6231
/2014/0	-6232
▁Noynoy	-6233
▁Prison	-6234
▁keeping	-6235
▁managed	-6236
▁readers	-6237
▁welfare	-6238
▁Caloocan	-6239
▁Criminal	-6240
▁judicial	-6241
▁multiple	-6242
▁shipment	-6243
▁displaced	-6244
▁incumbent	-6245
inog	-6246
▁Art	-6247
▁Then	-6248
▁clot	-6249
▁narr	-6250
Senate	-6251
ounder	-6252
ported	-6253
▁table	-6254
▁veter	-6255
▁degree	-6256
▁updates	-6257
▁Archbishop	-6258
3-	-6259
ux	-6260
dom	-6261
ols	-6262
osa	-6263
too	-6264
inger	-6265
50,000	-6266
ructed	-6267
▁antic	-6268
▁belief	-6269
▁losing	-6270
atorship	-6271
▁possibly	-6272
▁publicly	-6273
▁otherwise	-6274
▁evacuation	-6275
▁agricultural	-6276
GA	-6277
OW	-6278
Any	-6279
Both	-6280
▁Jul	-6281
▁hur	-6282
▁cars	-6283
▁gold	-6284
▁hurt	-6285
▁Grand	-6286
▁Water	-6287
▁aspir	-6288
▁banned	-6289
▁strugg	-6290
▁effects	-6291
▁greater	-6292
▁issuance	-6293
▁magazine	-6294
▁replaced	-6295
▁emotional	-6296
ze	-6297
arda	-6298
azar	-6299
▁Oro	-6300
agers	-6301
▁Edsa	-6302
▁Holy	-6303
gender	-6304
▁Civil	-6305
▁beaut	-6306
▁faces	-6307
▁indic	-6308
▁rebel	-6309
▁prompt	-6310
▁Revenue	-6311
▁Station	-6312
▁pushing	-6313
▁encourage	-6314
▁privilege	-6315
UT	-6316
cor	-6317
iel	-6318
inl	-6319
▁Up	-6320
inks	-6321
elled	-6322
ouses	-6323
woman	-6324
▁bags	-6325
▁kami	-6326
▁pled	-6327
▁wear	-6328
▁branch	-6329
▁urging	-6330
▁Tagalog	-6331
▁playing	-6332
▁pushers	-6333
▁younger	-6334
2-	-6335
▁6,	-6336
ette	-6337
Chief	-6338
lease	-6339
▁gust	-6340
abayan	-6341
▁Earth	-6342
▁Ecija	-6343
▁resum	-6344
▁sorry	-6345
▁appoin	-6346
▁cancer	-6347
▁double	-6348
▁Eduardo	-6349
▁hectares	-6350
▁difference	-6351
bab	-6352
Most	-6353
arra	-6354
prof	-6355
vant	-6356
▁Bam	-6357
▁Mab	-6358
▁Mis	-6359
▁PDP	-6360
▁Rec	-6361
▁Son	-6362
/2015	-6363
ilino	-6364
▁Mang	-6365
▁iron	-6366
ounted	-6367
▁Apple	-6368
▁Edgar	-6369
▁isang	-6370
▁mount	-6371
▁Panelo	-6372
▁bloody	-6373
▁mayors	-6374
▁values	-6375
▁Ejercito	-6376
▁deployed	-6377
▁requires	-6378
▁celebrity	-6379
▁expensive	-6380
▁residence	-6381
▁protecting	-6382
onn	-6383
amat	-6384
bert	-6385
filo	-6386
lims	-6387
▁Exp	-6388
▁Ver	-6389
iriam	-6390
▁Good	-6391
▁Joel	-6392
▁dire	-6393
▁impr	-6394
▁Energy	-6395
▁quoted	-6396
▁Pilipino	-6397
▁Institute	-6398
▁conversation	-6399
▁Representative	-6400
obe	-6401
ples	-6402
ried	-6403
alang	-6404
▁baby	-6405
▁2015.	-6406
▁facts	-6407
▁rival	-6408
▁nearby	-6409
▁Palawan	-6410
▁Vietnam	-6411
▁Aquilino	-6412
▁behavior	-6413
▁Assistance	-6414
▁assessment	-6415
▁legitimate	-6416
28	-6417
▁AR	-6418
▁BIR	-6419
▁Ker	-6420
▁arm	-6421
overy	-6422
▁Proc	-6423
▁wall	-6424
ailing	-6425
▁teach	-6426
▁argued	-6427
▁gunmen	-6428
▁talaga	-6429
▁bringing	-6430
▁reconsid	-6431
▁congressman	-6432
DS	-6433
PI	-6434
App	-6435
ror	-6436
▁45	-6437
▁Mid	-6438
▁gat	-6439
▁ally	-6440
▁Guard	-6441
▁franch	-6442
▁absence	-6443
▁passing	-6444
▁realize	-6445
▁obtained	-6446
▁suggested	-6447
▁criticisms	-6448
▁mainstream	-6449
▁restaurant	-6450
▁undocumented	-6451
4-	-6452
vin	-6453
▁Av	-6454
▁EU	-6455
host	-6456
rene	-6457
vent	-6458
gular	-6459
known	-6460
▁kany	-6461
▁vent	-6462
▁Hotel	-6463
▁twice	-6464
▁usual	-6465
▁earned	-6466
▁finish	-6467
▁harass	-6468
▁unlike	-6469
▁Panfilo	-6470
▁Project	-6471
▁cabinet	-6472
▁operate	-6473
▁commemor	-6474
▁Agreement	-6475
fortunately	-6476
▁processing	-6477
▁surrounding	-6478
Sp	-6479
ams	-6480
anks	-6481
apid	-6482
oces	-6483
outs	-6484
▁eat	-6485
arcot	-6486
▁lady	-6487
▁Valley	-6488
▁intent	-6489
▁blogger	-6490
▁concert	-6491
▁creation	-6492
▁northern	-6493
▁buildings	-6494
SG	-6495
urg	-6496
▁7,	-6497
▁eh	-6498
▁Luc	-6499
iones	-6500
▁Hern	-6501
ashion	-6502
▁Google	-6503
▁palace	-6504
▁nuclear	-6505
▁sitting	-6506
▁automatic	-6507
▁Resolution	-6508
▁nomination	-6509
▁prosecutor	-6510
▁protesters	-6511
49	-6512
WS	-6513
▁31	-6514
▁cy	-6515
roll	-6516
ushed	-6517
▁1,000	-6518
▁store	-6519
ulating	-6520
▁Online	-6521
▁shares	-6522
▁talked	-6523
▁soldier	-6524
▁Majority	-6525
▁surprise	-6526
alk	-6527
rit	-6528
▁35	-6529
TFRB	-6530
mosp	-6531
orms	-6532
▁Ter	-6533
▁isn	-6534
▁kay	-6535
echan	-6536
ected	-6537
▁sound	-6538
ulatory	-6539
vention	-6540
▁prelim	-6541
▁affidav	-6542
▁disease	-6543
▁suffered	-6544
▁understanding	-6545
Car	-6546
ika	-6547
▁Oz	-6548
uque	-6549
▁quit	-6550
▁scene	-6551
▁Colomb	-6552
▁Manuel	-6553
▁guests	-6554
▁ribbon	-6555
▁selling	-6556
▁fighters	-6557
▁gathered	-6558
:“	-6559
MO	-6560
▁Of	-6561
▁nob	-6562
▁More	-6563
▁dign	-6564
▁luck	-6565
atican	-6566
earing	-6567
▁Saudi	-6568
▁colon	-6569
▁firms	-6570
▁uncon	-6571
▁advice	-6572
▁coffee	-6573
▁retail	-6574
▁stands	-6575
▁liberal	-6576
▁package	-6577
▁primary	-6578
▁univers	-6579
▁Lascañas	-6580
▁attacked	-6581
▁ceasefire	-6582
▁irregular	-6583
Two	-6584
▁6.	-6585
▁Alf	-6586
▁sun	-6587
anang	-6588
stron	-6589
ubbed	-6590
▁Bato	-6591
▁PCOO	-6592
▁zero	-6593
uction	-6594
▁discipl	-6595
▁dispute	-6596
▁undergo	-6597
▁innocent	-6598
▁Villanueva	-6599
▁applicants	-6600
▁electricity	-6601
66	-6602
esy	-6603
iño	-6604
tra	-6605
upa	-6606
apan	-6607
oval	-6608
▁Fel	-6609
▁Vol	-6610
▁tob	-6611
night	-6612
▁Flor	-6613
igrant	-6614
upport	-6615
▁forest	-6616
▁prefer	-6617
▁Vatican	-6618
▁permits	-6619
▁tobacco	-6620
▁acknowled	-6621
▁Gatchalian	-6622
▁propaganda	-6623
▁recognition	-6624
opher	-6625
▁zone	-6626
ooking	-6627
▁Audit	-6628
▁delay	-6629
▁fresh	-6630
▁bought	-6631
▁handle	-6632
▁transl	-6633
▁earthqu	-6634
▁deadline	-6635
▁definitely	-6636
asco	-6637
▁Win	-6638
▁hab	-6639
essel	-6640
loban	-6641
▁Spok	-6642
▁gift	-6643
▁sales	-6644
▁engage	-6645
▁identify	-6646
▁accomplish	-6647
▁reputation	-6648
▁preliminary	-6649
▁respectively	-6650
HA	-6651
oko	-6652
▁du	-6653
irty	-6654
▁dig	-6655
ament	-6656
state	-6657
▁Plan	-6658
▁roll	-6659
▁sole	-6660
▁green	-6661
▁estate	-6662
▁facilit	-6663
▁slammed	-6664
▁appealed	-6665
▁findings	-6666
▁barangays	-6667
37	-6668
JK	-6669
las	-6670
ewis	-6671
▁Lee	-6672
arate	-6673
olent	-6674
ojinog	-6675
▁Piñol	-6676
▁costs	-6677
▁apprec	-6678
▁attrib	-6679
▁couldn	-6680
▁rebell	-6681
▁recall	-6682
▁reserv	-6683
▁strike	-6684
▁vessel	-6685
▁awarded	-6686
▁identity	-6687
▁Republicans	-6688
▁represented	-6689
TO	-6690
.“[	-6691
osc	-6692
▁9,	-6693
hour	-6694
ifth	-6695
resp	-6696
▁Who	-6697
▁coc	-6698
▁2012	-6699
▁beat	-6700
▁boss	-6701
▁analy	-6702
▁error	-6703
▁Lagman	-6704
▁Rolando	-6705
▁entitled	-6706
▁challenges	-6707
Se	-6708
cho	-6709
ils	-6710
▁Ol	-6711
akit	-6712
▁202	-6713
apeña	-6714
▁Atty	-6715
▁dito	-6716
▁summ	-6717
ground	-6718
▁Roman	-6719
▁nations	-6720
mbassador	-6721
▁disputed	-6722
▁initially	-6723
▁procurement	-6724
▁investigated	-6725
6-	-6726
▁Ja	-6727
▁TO	-6728
ilog	-6729
▁guy	-6730
▁typ	-6731
▁Cory	-6732
▁ease	-6733
▁surf	-6734
▁vend	-6735
ousing	-6736
▁advert	-6737
▁doctor	-6738
▁degrees	-6739
▁tuition	-6740
▁creating	-6741
▁admission	-6742
▁recognize	-6743
▁Technology	-6744
▁diplomatic	-6745
▁encouraged	-6746
NL	-6747
aba	-6748
zen	-6749
okno	-6750
▁Año	-6751
▁cul	-6752
▁Most	-6753
Former	-6754
Health	-6755
arrass	-6756
▁Pasay	-6757
▁Prote	-6758
percent	-6759
▁Taguig	-6760
▁pushed	-6761
ominated	-6762
▁Instead	-6763
▁fishing	-6764
▁sending	-6765
▁commandos	-6766
".	-6767
hon	-6768
vez	-6769
yung	-6770
▁Rem	-6771
▁VID	-6772
▁lum	-6773
▁vul	-6774
Those	-6775
osure	-6776
▁cops	-6777
▁hall	-6778
▁scre	-6779
▁sick	-6780
Americ	-6781
▁2013,	-6782
▁games	-6783
▁voter	-6784
▁Andres	-6785
▁please	-6786
▁struct	-6787
▁flights	-6788
▁Fernando	-6789
▁designed	-6790
▁properly	-6791
▁hospitals	-6792
▁newspaper	-6793
▁practices	-6794
tw	-6795
▁3.	-6796
neys	-6797
ship	-6798
ysis	-6799
arlac	-6800
rench	-6801
▁scen	-6802
▁sort	-6803
loaded	-6804
▁Trade	-6805
▁toler	-6806
▁tough	-6807
/2015/0	-6808
osexual	-6809
▁emphas	-6810
▁permit	-6811
▁vision	-6812
National	-6813
▁addicts	-6814
▁initiative	-6815
▁properties	-6816
▁inauguration	-6817
BA	-6818
Sec	-6819
▁4.	-6820
Roxas	-6821
board	-6822
ocsin	-6823
rales	-6824
▁hair	-6825
emeter	-6826
▁VIDEO	-6827
▁floor	-6828
▁basket	-6829
▁escape	-6830
▁hiding	-6831
inations	-6832
▁Atienza	-6833
▁Yolanda	-6834
▁function	-6835
▁passenger	-6836
▁Convention	-6837
▁Malacanang	-6838
▁politician	-6839
▁strengthen	-6840
ka	-6841
DOJ	-6842
arg	-6843
bial	-6844
olid	-6845
Donald	-6846
▁Putin	-6847
▁boxes	-6848
tenance	-6849
urisima	-6850
▁Bataan	-6851
▁Victor	-6852
▁honest	-6853
▁summer	-6854
Santiago	-6855
▁confisc	-6856
▁fulfill	-6857
▁perpetr	-6858
▁Tacloban	-6859
▁Parojinog	-6860
▁apologized	-6861
who	-6862
Like	-6863
olfo	-6864
▁Los	-6865
imatu	-6866
▁Card	-6867
everal	-6868
▁counts	-6869
▁closely	-6870
▁founder	-6871
▁trouble	-6872
▁features	-6873
identified	-6874
▁sustained	-6875
▁deployment	-6876
▁investments	-6877
eda	-6878
lao	-6879
alin	-6880
▁25,	-6881
▁Vir	-6882
▁flu	-6883
agram	-6884
istry	-6885
uneta	-6886
anchez	-6887
rolled	-6888
▁schol	-6889
▁Miriam	-6890
arcotics	-6891
▁Article	-6892
▁scandal	-6893
▁imprison	-6894
▁indicated	-6895
▁protected	-6896
▁questioning	-6897
Upon	-6898
amiz	-6899
mind	-6900
▁Tok	-6901
▁Tul	-6902
▁cha	-6903
▁dyn	-6904
▁lay	-6905
▁mic	-6906
▁unn	-6907
▁AMLC	-6908
▁harm	-6909
▁veget	-6910
▁virus	-6911
weather	-6912
▁casual	-6913
▁desper	-6914
▁videos	-6915
etroleum	-6916
▁abandon	-6917
▁install	-6918
▁physical	-6919
▁permanent	-6920
▁DA	-6921
PDEA	-6922
irts	-6923
▁hyp	-6924
activ	-6925
ensor	-6926
ivals	-6927
▁abol	-6928
▁busy	-6929
▁devast	-6930
▁Balutan	-6931
▁capable	-6932
▁villages	-6933
▁beautiful	-6934
▁bilateral	-6935
▁rebellion	-6936
▁transferred	-6937
▁establishment	-6938
▁participation	-6939
47	-6940
ota	-6941
arin	-6942
dule	-6943
elda	-6944
iary	-6945
rend	-6946
▁Aut	-6947
▁Hen	-6948
▁ICC	-6949
▁bed	-6950
▁quo	-6951
point	-6952
ulous	-6953
▁fron	-6954
▁2014,	-6955
▁discr	-6956
▁write	-6957
▁subsid	-6958
▁Alejano	-6959
▁continu	-6960
▁Marcoses	-6961
▁Overseas	-6962
▁bloggers	-6963
▁covering	-6964
▁referred	-6965
▁stations	-6966
▁Solicitor	-6967
▁resulting	-6968
▁sometimes	-6969
Or	-6970
aro	-6971
but	-6972
bust	-6973
lers	-6974
teur	-6975
uine	-6976
angco	-6977
▁bird	-6978
▁listed	-6979
▁unanim	-6980
▁outlets	-6981
▁outrage	-6982
▁absolute	-6983
▁encounter	-6984
55	-6985
enz	-6986
ple	-6987
▁49	-6988
▁eg	-6989
ocks	-6990
thur	-6991
▁RTC	-6992
▁tao	-6993
▁kaya	-6994
ildren	-6995
▁Every	-6996
▁style	-6997
▁gender	-6998
▁impose	-6999
▁temper	-7000
▁applied	-7001
▁driving	-7002
▁meaning	-7003
▁circumst	-7004
▁ordinance	-7005
▁distributed	-7006
▁proclamation	-7007
Bal	-7008
ENT	-7009
▁ho	-7010
asot	-7011
ring	-7012
iwalo	-7013
onent	-7014
▁Rail	-7015
▁hack	-7016
▁laid	-7017
arbage	-7018
▁Bohol	-7019
▁cards	-7020
▁Ozamiz	-7021
▁instru	-7022
▁seemed	-7023
▁tasked	-7024
▁bullets	-7025
▁teacher	-7026
▁thanked	-7027
▁injuries	-7028
▁mandated	-7029
government	-7030
Le	-7031
ios	-7032
▁SB	-7033
ruck	-7034
▁nya	-7035
eches	-7036
jamin	-7037
story	-7038
▁anch	-7039
ipping	-7040
vision	-7041
▁Hindi	-7042
▁incom	-7043
▁pregn	-7044
▁dinner	-7045
▁listen	-7046
ropolitan	-7047
▁constitu	-7048
▁entering	-7049
▁passport	-7050
▁celebrate	-7051
▁transgender	-7052
ray	-7053
▁Es	-7054
itol	-7055
pass	-7056
unan	-7057
▁tap	-7058
First	-7059
ondon	-7060
▁Inst	-7061
▁Rome	-7062
▁Women	-7063
▁moves	-7064
▁stock	-7065
uevarra	-7066
▁column	-7067
▁gained	-7068
▁phones	-7069
▁Jimenez	-7070
▁Muslims	-7071
▁content	-7072
▁prepare	-7073
▁cultural	-7074
▁thorough	-7075
prehensive	-7076
▁legislators	-7077
27	-7078
99	-7079
▁AT	-7080
▁Ka	-7081
eras	-7082
▁23,	-7083
▁Dig	-7084
▁Rel	-7085
▁Sta	-7086
▁lov	-7087
cking	-7088
▁Sher	-7089
▁drag	-7090
▁prin	-7091
ceived	-7092
▁height	-7093
▁myself	-7094
▁suffer	-7095
Pacquiao	-7096
▁Ambassador	-7097
▁Christopher	-7098
itz	-7099
▁Ms	-7100
onut	-7101
ucks	-7102
▁Pri	-7103
annel	-7104
order	-7105
wered	-7106
▁army	-7107
▁France	-7108
▁played	-7109
▁worker	-7110
▁joining	-7111
▁reduced	-7112
▁relevant	-7113
▁advocates	-7114
▁developed	-7115
▁solutions	-7116
▁supporter	-7117
▁represents	-7118
▁personality	-7119
▁stakeholders	-7120
▁8,	-7121
▁By	-7122
▁MM	-7123
dalo	-7124
eces	-7125
ider	-7126
▁Mah	-7127
▁PHP	-7128
▁yes	-7129
▁2011	-7130
▁namin	-7131
▁formed	-7132
olentino	-7133
▁praised	-7134
▁Thinking	-7135
▁aircraft	-7136
▁dismissal	-7137
▁indigenous	-7138
▁kidnapping	-7139
▁parliament	-7140
▁trafficking	-7141
Dr	-7142
ags	-7143
onym	-7144
ascon	-7145
uthor	-7146
▁dies	-7147
▁fare	-7148
▁Santa	-7149
▁chain	-7150
ograles	-7151
▁Tarlac	-7152
▁native	-7153
▁ticket	-7154
▁figures	-7155
▁courtesy	-7156
▁watching	-7157
▁importation	-7158
UN	-7159
San	-7160
ads	-7161
▁Gab	-7162
ingly	-7163
llect	-7164
▁teen	-7165
abiliz	-7166
embers	-7167
morrow	-7168
▁email	-7169
▁sides	-7170
▁steps	-7171
▁fought	-7172
▁mechan	-7173
▁conspir	-7174
▁Prosecut	-7175
▁brothers	-7176
▁schedule	-7177
▁tomorrow	-7178
▁everybody	-7179
▁importance	-7180
▁prohibited	-7181
▁maintenance	-7182
38	-7183
issa	-7184
ores	-7185
▁bot	-7186
▁mad	-7187
▁PDAF	-7188
▁bars	-7189
▁hell	-7190
ossible	-7191
unction	-7192
▁Cooper	-7193
▁closer	-7194
▁extrem	-7195
▁stores	-7196
▁rallies	-7197
president	-7198
▁Defensor	-7199
▁incoming	-7200
▁crackdown	-7201
▁increases	-7202
▁preparing	-7203
▁agreements	-7204
yl	-7205
iors	-7206
▁GOP	-7207
▁Mer	-7208
▁Ren	-7209
▁hal	-7210
▁Asse	-7211
▁tend	-7212
Before	-7213
inated	-7214
▁anger	-7215
▁gives	-7216
essions	-7217
▁assass	-7218
▁compre	-7219
▁expand	-7220
▁sports	-7221
▁embarrass	-7222
▁addressing	-7223
▁consistent	-7224
▁specifically	-7225
BM	-7226
Sa	-7227
ete	-7228
uno	-7229
fake	-7230
▁Ban	-7231
▁Lam	-7232
▁rac	-7233
amard	-7234
asure	-7235
break	-7236
oting	-7237
right	-7238
▁eval	-7239
▁trig	-7240
ansion	-7241
▁recon	-7242
▁venue	-7243
Instead	-7244
▁Basilan	-7245
▁fashion	-7246
▁According	-7247
▁Dominguez	-7248
▁authorized	-7249
▁foreigners	-7250
key	-7251
rey	-7252
uana	-7253
▁Bon	-7254
▁Edg	-7255
▁Tax	-7256
▁der	-7257
▁hor	-7258
▁jun	-7259
ucker	-7260
▁Star	-7261
▁evil	-7262
▁ride	-7263
▁rout	-7264
working	-7265
▁accred	-7266
▁noting	-7267
▁Rodolfo	-7268
▁ballots	-7269
▁Business	-7270
▁Festival	-7271
▁relative	-7272
▁vigilant	-7273
▁directive	-7274
▁interested	-7275
▁congressmen	-7276
Bu	-7277
iqu	-7278
▁FO	-7279
alaw	-7280
ogan	-7281
▁NBP	-7282
oples	-7283
▁Post	-7284
▁gown	-7285
untinl	-7286
▁Recto	-7287
▁guest	-7288
▁theme	-7289
▁Isabel	-7290
▁excise	-7291
▁adopted	-7292
▁causing	-7293
▁finance	-7294
▁priests	-7295
▁smoking	-7296
struction	-7297
▁civilian	-7298
▁promises	-7299
▁compliance	-7300
▁counterpart	-7301
iy	-7302
can	-7303
▁Ne	-7304
athy	-7305
bitr	-7306
icit	-7307
west	-7308
▁Rog	-7309
▁Tug	-7310
▁mut	-7311
hetor	-7312
▁Cord	-7313
▁Ryan	-7314
▁winds	-7315
▁excess	-7316
Although	-7317
▁Freedom	-7318
▁Typhoon	-7319
▁Workers	-7320
▁damaged	-7321
▁violent	-7322
untinlupa	-7323
▁airports	-7324
▁formally	-7325
▁Australian	-7326
34	-7327
akas	-7328
cean	-7329
whel	-7330
▁rin	-7331
,000.	-7332
matic	-7333
usion	-7334
▁Mall	-7335
▁Merc	-7336
▁crew	-7337
People	-7338
▁cyber	-7339
▁minds	-7340
▁cancel	-7341
▁prolif	-7342
▁reward	-7343
▁Manager	-7344
▁garbage	-7345
▁Benjamin	-7346
▁sufficient	-7347
▁independence	-7348
ca	-7349
kay	-7350
CBCP	-7351
▁Jun	-7352
▁Tur	-7353
▁Upd	-7354
anted	-7355
ishes	-7356
itage	-7357
oline	-7358
▁pero	-7359
▁ating	-7360
▁fatal	-7361
▁gross	-7362
▁multi	-7363
ictions	-7364
▁ambass	-7365
▁funded	-7366
▁landsl	-7367
▁patrol	-7368
▁bombing	-7369
ordination	-7370
▁allegation	-7371
67	-7372
thia	-7373
▁anom	-7374
▁rare	-7375
ocking	-7376
ynthia	-7377
▁catch	-7378
▁frequ	-7379
ometown	-7380
▁images	-7381
▁interp	-7382
▁accident	-7383
▁massacre	-7384
▁speeches	-7385
▁efficient	-7386
▁promoting	-7387
▁successor	-7388
▁ceremonies	-7389
▁possession	-7390
ey	-7391
raf	-7392
▁MO	-7393
isan	-7394
▁Bin	-7395
▁DFA	-7396
▁hin	-7397
▁kan	-7398
▁nar	-7399
ronic	-7400
▁tort	-7401
icolas	-7402
intend	-7403
manuel	-7404
▁Paris	-7405
▁phase	-7406
▁revel	-7407
▁Imelda	-7408
▁Robert	-7409
▁awards	-7410
▁tagged	-7411
▁British	-7412
▁Germany	-7413
▁feature	-7414
▁jeepney	-7415
▁announce	-7416
▁elements	-7417
▁ensuring	-7418
▁collected	-7419
▁corporate	-7420
▁Revolution	-7421
▁democratic	-7422
BO	-7423
CH	-7424
DC	-7425
Per	-7426
iam	-7427
ius	-7428
▁5.	-7429
held	-7430
nity	-7431
ocol	-7432
▁31,	-7433
▁arms	-7434
reness	-7435
▁2018.	-7436
▁alarm	-7437
▁disag	-7438
▁exhib	-7439
ignment	-7440
▁enhance	-7441
▁machine	-7442
▁shocked	-7443
▁probable	-7444
▁purposes	-7445
▁extortion	-7446
▁organizers	-7447
▁manufacture	-7448
▁Metropolitan	-7449
RE	-7450
sen	-7451
iana	-7452
▁Fil	-7453
▁lik	-7454
ptive	-7455
▁barr	-7456
▁drew	-7457
▁2013.	-7458
acañang	-7459
▁advance	-7460
▁noticed	-7461
▁raising	-7462
▁apparent	-7463
▁concluded	-7464
▁defending	-7465
▁highlight	-7466
▁spreading	-7467
▁criminality	-7468
▁communications	-7469
PS	-7470
apo	-7471
DENR	-7472
ansa	-7473
ideo	-7474
idro	-7475
▁iPh	-7476
▁Brig	-7477
▁Capt	-7478
▁Last	-7479
▁rose	-7480
▁Umali	-7481
stronom	-7482
▁liable	-7483
▁resume	-7484
▁Sanchez	-7485
▁Updates	-7486
▁singing	-7487
▁contrary	-7488
▁broadcast	-7489
▁earthquake	-7490
▁credibility	-7491
▁dictatorship	-7492
fi	-7493
’“	-7494
lick	-7495
ogue	-7496
▁ton	-7497
adian	-7498
which	-7499
▁From	-7500
▁brut	-7501
▁heat	-7502
▁clash	-7503
▁queen	-7504
▁range	-7505
▁Kerwin	-7506
Netizens	-7507
▁complex	-7508
▁Emmanuel	-7509
▁Albayalde	-7510
▁functions	-7511
▁contributions	-7512
▁recommendation	-7513
Don	-7514
bar	-7515
▁Det	-7516
▁Flo	-7517
▁mir	-7518
▁rif	-7519
▁ris	-7520
▁tow	-7521
atuan	-7522
▁Stud	-7523
▁meat	-7524
▁tons	-7525
▁unex	-7526
▁beach	-7527
▁brain	-7528
▁likes	-7529
▁signs	-7530
▁cooper	-7531
▁Housing	-7532
▁discour	-7533
▁posting	-7534
intendent	-7535
▁moderate	-7536
▁occasion	-7537
▁pictures	-7538
▁affidavit	-7539
▁transition	-7540
▁recruitment	-7541
▁Comprehensive	-7542
LG	-7543
▁Sor	-7544
▁nin	-7545
omber	-7546
▁lift	-7547
▁symp	-7548
Source	-7549
charge	-7550
elling	-7551
▁2018,	-7552
▁alert	-7553
▁links	-7554
▁loved	-7555
▁prize	-7556
▁casino	-7557
▁rhetor	-7558
▁urgent	-7559
▁chamber	-7560
▁maritime	-7561
Malacañang	-7562
▁Hernandez	-7563
▁Instagram	-7564
▁appearance	-7565
▁punishment	-7566
▁applications	-7567
23	-7568
war	-7569
usal	-7570
▁11,	-7571
▁Tru	-7572
Every	-7573
filip	-7574
power	-7575
uated	-7576
utral	-7577
▁deem	-7578
▁ranks	-7579
▁reven	-7580
Napoles	-7581
▁players	-7582
▁suspend	-7583
▁hometown	-7584
▁Protection	-7585
▁permission	-7586
▁administrator	-7587
VP	-7588
di	-7589
OFW	-7590
uts	-7591
▁Da	-7592
▁ta	-7593
▁fee	-7594
▁hun	-7595
idays	-7596
▁boat	-7597
▁link	-7598
asters	-7599
ishing	-7600
▁leads	-7601
▁unity	-7602
▁artist	-7603
▁camera	-7604
▁frustr	-7605
▁sacrif	-7606
▁Legarda	-7607
▁Rosario	-7608
▁issuing	-7609
▁Memorial	-7610
▁Purisima	-7611
▁assembly	-7612
▁finished	-7613
▁neighbor	-7614
▁scholars	-7615
▁condemned	-7616
▁substance	-7617
▁basketball	-7618
▁introduced	-7619
▁conservative	-7620
,"	-7621
Cl	-7622
uns	-7623
Comm	-7624
amay	-7625
cers	-7626
abela	-7627
crack	-7628
pired	-7629
▁assa	-7630
▁coin	-7631
▁Other	-7632
▁antid	-7633
▁hired	-7634
▁oblig	-7635
▁tests	-7636
▁Isidro	-7637
▁allows	-7638
▁centav	-7639
▁deserv	-7640
▁marked	-7641
▁concept	-7642
▁Colombia	-7643
▁supplies	-7644
▁essential	-7645
▁judiciary	-7646
▁Muntinlupa	-7647
▁executives	-7648
▁inspection	-7649
▁consequences	-7650
26	-7651
bel	-7652
▁Sk	-7653
atan	-7654
uate	-7655
▁tin	-7656
acion	-7657
burse	-7658
ebast	-7659
gered	-7660
ieces	-7661
lings	-7662
▁1986	-7663
▁ARMM	-7664
▁Move	-7665
▁east	-7666
▁plea	-7667
ailand	-7668
▁blast	-7669
▁troop	-7670
▁Arthur	-7671
▁riding	-7672
▁vulner	-7673
▁walang	-7674
▁weight	-7675
▁Billion	-7676
▁Fariñas	-7677
▁Network	-7678
▁bishops	-7679
▁compens	-7680
▁context	-7681
Filipinos	-7682
uckerberg	-7683
▁faithful	-7684
▁apologize	-7685
▁existence	-7686
▁amendments	-7687
-6	-7688
mn	-7689
eck	-7690
eff	-7691
urb	-7692
▁Os	-7693
good	-7694
iter	-7695
▁12,	-7696
▁Hil	-7697
▁Squ	-7698
▁agr	-7699
▁tun	-7700
angel	-7701
ardon	-7702
elfin	-7703
useum	-7704
▁Trib	-7705
▁chem	-7706
enders	-7707
▁Patag	-7708
▁appre	-7709
▁enemy	-7710
▁label	-7711
▁manif	-7712
▁urban	-7713
▁London	-7714
▁rumors	-7715
ebastian	-7716
▁ability	-7717
▁assumed	-7718
▁footage	-7719
▁overall	-7720
▁targets	-7721
▁winners	-7722
▁humanity	-7723
▁overwhel	-7724
▁Spokesperson	-7725
▁acknowledged	-7726
▁CC	-7727
rine	-7728
▁15,	-7729
▁Amp	-7730
▁Kat	-7731
▁Mic	-7732
▁Tre	-7733
▁Two	-7734
▁Yes	-7735
▁fol	-7736
1,000	-7737
Mayor	-7738
▁tack	-7739
ijuana	-7740
vestre	-7741
▁Villa	-7742
▁sugar	-7743
▁Integr	-7744
▁bullet	-7745
▁desire	-7746
▁heroes	-7747
▁Science	-7748
▁follows	-7749
▁neither	-7750
▁tweeted	-7751
▁Guevarra	-7752
▁anywhere	-7753
▁internal	-7754
▁Taguiwalo	-7755
▁graduates	-7756
▁processes	-7757
▁presidents	-7758
▁accountable	-7759
▁campaigning	-7760
▁requirement	-7761
▁revolutionary	-7762
ñas	-7763
▁36	-7764
....	-7765
▁10,	-7766
▁18,	-7767
▁300	-7768
▁Fox	-7769
▁Para	-7770
▁ware	-7771
▁angry	-7772
▁banks	-7773
▁Diokno	-7774
▁convin	-7775
▁diesel	-7776
▁ngayon	-7777
▁refuge	-7778
▁struck	-7779
▁symbol	-7780
▁Charter	-7781
▁balance	-7782
▁sharing	-7783
▁Building	-7784
▁attitude	-7785
▁strength	-7786
▁suddenly	-7787
▁upcoming	-7788
▁yourself	-7789
▁contained	-7790
▁photograph	-7791
▁examination	-7792
▁circumstances	-7793
▁investigators	-7794
WD	-7795
Rec	-7796
eal	-7797
gen	-7798
iat	-7799
lad	-7800
www	-7801
ante	-7802
▁BBC	-7803
▁HIV	-7804
ighty	-7805
▁Gold	-7806
▁soft	-7807
talion	-7808
▁guess	-7809
▁miles	-7810
▁pride	-7811
ivalent	-7812
▁French	-7813
▁unfair	-7814
▁cleared	-7815
▁failing	-7816
▁unidentified	-7817
EP	-7818
ipp	-7819
lla	-7820
Dela	-7821
rers	-7822
▁10-	-7823
▁27,	-7824
▁Kab	-7825
orted	-7826
phone	-7827
▁Jack	-7828
▁Kian	-7829
▁Mags	-7830
▁guns	-7831
entral	-7832
estyle	-7833
illera	-7834
▁explo	-7835
▁illeg	-7836
▁stick	-7837
▁animals	-7838
▁advocacy	-7839
▁answered	-7840
▁strongly	-7841
▁firecrack	-7842
▁sustainable	-7843
▁municipalities	-7844
39	-7845
ube	-7846
aire	-7847
from	-7848
5,000	-7849
Davao	-7850
ackur	-7851
antic	-7852
guard	-7853
▁Naga	-7854
▁pock	-7855
atures	-7856
▁Palin	-7857
▁Stand	-7858
▁trash	-7859
ligarch	-7860
▁Delfin	-7861
▁Federal	-7862
▁Nicolas	-7863
▁cameras	-7864
▁replied	-7865
▁Military	-7866
▁gasoline	-7867
▁homeless	-7868
▁shortage	-7869
▁convinced	-7870
▁offensive	-7871
▁Autonomous	-7872
▁contribute	-7873
dem	-7874
Then	-7875
rone	-7876
▁Wil	-7877
human	-7878
▁Fire	-7879
▁Gonz	-7880
▁anal	-7881
▁2012,	-7882
▁Queen	-7883
▁shoes	-7884
respect	-7885
▁guards	-7886
▁nobody	-7887
▁ouster	-7888
▁plants	-7889
▁apology	-7890
▁comprom	-7891
▁mistake	-7892
▁worried	-7893
▁Alliance	-7894
▁convince	-7895
▁hostages	-7896
▁produced	-7897
▁Silvestre	-7898
▁returning	-7899
▁Mayweather	-7900
Fr	-7901
LD	-7902
bow	-7903
rud	-7904
▁IN	-7905
▁Ng	-7906
eneo	-7907
rete	-7908
tery	-7909
otten	-7910
▁Aren	-7911
▁prot	-7912
achers	-7913
econom	-7914
▁	-7915
e	-7916
t	-7917
a	-7918
i	-7919
o	-7920
n	-7921
s	-7922
r	-7923
h	-7924
l	-7925
d	-7926
c	-7927
u	-7928
m	-7929
p	-7930
g	-7931
f	-7932
y	-7933
w	-7934
b	-7935
.	-7936
,	-7937
v	-7938
k	-7939
P	-7940
A	-7941
T	-7942
C	-7943
S	-7944
M	-7945
I	-7946
-	-7947
D	-7948
’	-7949
R	-7950
B	-7951
”	-7952
0	-7953
“	-7954
N	-7955
1	-7956
L	-7957
F	-7958
x	-7959
E	-7960
O	-7961
H	-7962
2	-7963
z	-7964
j	-7965
q	-7966
W	-7967
:	-7968
G	-7969
)	-7970
(	-7971
J	-7972
U	-7973
5	-7974
3	-7975
V	-7976
6	-7977
4	-7978
9	-7979
7	-7980
K	-7981
8	-7982
?	-7983
/	-7984
Y	-7985
'	-7986
‘	-7987
;	-7988
!	-7989
—	-7990
ñ	-7991
[	-7992
]	-7993
"	-7994
Q	-7995
